<pad>	0
<unk>	0
<s>	0
</s>	0
.	-3.28841
,	-3.91526
▁	-4.14191
▁في	-4.39145
،	-4.54391
▁من	-4.56668
▁של	-4.89645
▁את	-5.04407
▁على	-5.14677
ים	-5.19362
▁،	-5.34593
:	-5.36337
▁על	-5.39857
ة	-5.44993
ה	-5.46877
▁أن	-5.48063
▁"	-5.53463
▁(	-5.60057
ת	-5.61223
▁ב	-5.6162
▁ה	-5.62271
"	-5.6331
▁و	-5.67788
▁לא	-5.69304
ות	-5.71796
▁ו	-5.76404
▁إلى	-5.76529
▁ל	-5.76621
ו	-5.76805
ه	-5.88192
)	-5.90891
ات	-5.95923
-	-6.00293
י	-6.01689
ي	-6.02589
▁لا	-6.03026
▁זה	-6.04326
ا	-6.04496
▁-	-6.04724
▁מ	-6.08464
▁עם	-6.09748
▁أو	-6.11481
▁או	-6.11603
ها	-6.12092
▁ال	-6.13322
▁הוא	-6.17196
▁مع	-6.20564
ية	-6.25794
ين	-6.31092
▁التي	-6.32876
▁وال	-6.33835
▁عن	-6.35383
▁ما	-6.35621
ت	-6.37608
▁מה	-6.38183
▁هذا	-6.39234
▁כל	-6.43577
▁ل	-6.43748
▁هو	-6.44934
▁ب	-6.45662
".	-6.4949
ون	-6.53775
ك	-6.54193
▁هذه	-6.57442
▁لل	-6.58296
?	-6.58724
▁יותר	-6.62488
▁אם	-6.63331
▁ذلك	-6.64338
▁כי	-6.65494
▁كل	-6.67641
▁יש	-6.68765
▁ש	-6.69686
▁כדי	-6.7277
ם	-6.72844
▁גם	-6.72919
▁ت	-6.73583
'	-6.73699
نا	-6.74211
▁אתה	-6.76904
▁היא	-6.77988
؟	-6.78915
▁الم	-6.8047
▁ي	-6.81402
▁م	-6.81598
▁كان	-6.82705
ًا	-6.83452
▁يمكن	-6.84491
▁שלך	-6.87745
▁لم	-6.88386
▁וה	-6.88604
وا	-6.8964
▁الذي	-6.91554
▁הם	-6.92835
▁إذا	-6.92995
هم	-6.94544
▁יכול	-6.95541
▁–	-6.99618
▁بال	-7.00401
▁هي	-7.00567
▁להיות	-7.04068
▁אני	-7.07307
▁אבל	-7.07581
s	-7.07633
ב	-7.08526
ال	-7.0918
▁بعد	-7.0987
!	-7.14919
اً	-7.15349
▁أي	-7.1683
ל	-7.17026
▁רק	-7.19503
▁قد	-7.19561
▁ولكن	-7.20058
).	-7.21064
▁ביותר	-7.22921
▁أكثر	-7.23608
▁כמו	-7.24191
▁ن	-7.243
▁אחד	-7.24973
▁כ	-7.25171
▁أ	-7.25743
▁هناك	-7.25848
▁قبل	-7.25857
▁ידי	-7.27195
▁עבור	-7.30775
▁היה	-7.32167
נו	-7.33278
▁خلال	-7.34428
▁שה	-7.34517
▁“	-7.34742
▁بين	-7.366
▁فقط	-7.37348
▁حتى	-7.38416
▁يكون	-7.41699
▁عام	-7.42335
▁يجب	-7.42635
▁غير	-7.42914
...	-7.42963
▁לה	-7.44301
▁ا	-7.46188
▁זו	-7.46268
م	-7.46715
ית	-7.47661
▁שלנו	-7.51096
▁1	-7.5148
▁עד	-7.51687
▁تم	-7.52068
▁לך	-7.52294
▁مثل	-7.52429
/	-7.52742
▁كنت	-7.5375
▁בין	-7.54928
▁כך	-7.56988
▁عندما	-7.57226
ן	-7.58423
▁2	-7.5926
▁ان	-7.59708
▁يتم	-7.5991
▁الذين	-7.6069
▁אל	-7.61106
▁לאחר	-7.61211
▁3	-7.61438
▁بشكل	-7.61704
▁וב	-7.619
▁يمكنك	-7.62157
▁בכל	-7.62356
▁זאת	-7.63618
▁צריך	-7.63899
▁جميع	-7.64025
▁كانت	-7.64212
▁تكون	-7.64321
▁العالم	-7.64459
▁أنه	-7.6543
ח	-7.66217
▁לי	-7.66309
▁كما	-7.66612
▁ול	-7.68449
▁بعض	-7.68451
▁...	-7.68679
”	-7.69111
▁وي	-7.69274
ان	-7.70743
▁המ	-7.71114
▁/	-7.71465
▁כמה	-7.71599
▁ليس	-7.72909
ר	-7.73059
▁ת	-7.74106
▁מאוד	-7.74739
▁ג	-7.75117
▁לפני	-7.75479
ـ	-7.75605
▁5	-7.7562
מ	-7.7582
▁10	-7.76054
▁شيء	-7.76198
▁العمل	-7.77449
▁أخرى	-7.77819
▁אשר	-7.78223
▁هل	-7.78483
▁אותו	-7.79221
▁כאשר	-7.79284
▁ישראל	-7.7958
▁أيضا	-7.80472
▁وت	-7.80935
תי	-7.81266
▁اليوم	-7.81694
▁י	-7.81768
▁שלהם	-7.81824
▁אלה	-7.81895
▁ك	-7.83649
▁אנחנו	-7.83703
▁אנשים	-7.83778
יה	-7.84755
▁الوقت	-7.85197
▁إن	-7.85389
▁אין	-7.85601
▁מי	-7.85997
▁حول	-7.86181
▁באופן	-7.86708
ّ	-7.8747
▁المتحدة	-7.87987
و	-7.88019
▁إسرائيل	-7.88201
▁לו	-7.88636
▁4	-7.88681
ن	-7.88744
▁سوف	-7.90038
▁לעשות	-7.91798
▁הזה	-7.92035
▁سي	-7.92297
ى	-7.93432
▁נ	-7.94373
▁بك	-7.95285
▁'	-7.95346
יות	-7.95923
▁الى	-7.96247
;	-7.96393
ך	-7.96643
ג	-7.98511
▁אז	-7.98805
ון	-7.99395
▁ניתן	-7.99665
ب	-7.99689
▁אנו	-7.99769
▁אך	-8.00088
▁واحدة	-8.00525
▁היו	-8.00639
▁ומ	-8.01174
▁لكن	-8.02406
▁أفضل	-8.02973
▁لن	-8.0308
▁استخدام	-8.0364
▁وفي	-8.03672
▁واحد	-8.04637
ته	-8.04719
▁הרבה	-8.0481
▁الآن	-8.05443
▁זמן	-8.05671
اء	-8.05677
▁وم	-8.05906
▁S	-8.06086
ني	-8.06564
▁الناس	-8.06778
▁فإن	-8.06969
▁لك	-8.07403
▁אחרים	-8.07675
▁حيث	-8.07838
▁יכולים	-8.08376
▁טוב	-8.08434
▁אחר	-8.08627
▁שנים	-8.08701
▁איך	-8.08805
▁אדם	-8.09385
▁האם	-8.09756
▁יהיה	-8.0999
▁كيف	-8.10085
▁A	-8.102
▁שלי	-8.1136
ס	-8.11915
▁אחת	-8.12208
▁ואת	-8.1227
▁מספר	-8.13018
▁בו	-8.13051
▁בית	-8.13126
▁عند	-8.13131
▁ללא	-8.13461
▁עוד	-8.13614
▁העולם	-8.14464
س	-8.14601
▁דבר	-8.14609
▁שלו	-8.14688
”.	-8.14768
▁כבר	-8.15178
▁6	-8.1545
▁لي	-8.15512
א	-8.15525
▁שני	-8.1557
▁الخاصة	-8.15726
▁وقت	-8.16221
▁الله	-8.16401
▁באמצעות	-8.16578
▁שהוא	-8.16804
▁פי	-8.16877
▁والم	-8.1716
▁היום	-8.17186
▁שאתה	-8.17825
▁B	-8.17845
▁يوم	-8.17917
▁רוצה	-8.18184
▁وأ	-8.18879
▁יום	-8.1938
▁רבים	-8.19422
▁مرة	-8.19736
▁منذ	-8.2044
▁לנו	-8.20553
▁ולא	-8.20665
▁:	-8.21174
▁دون	-8.21928
▁ولا	-8.21983
▁هنا	-8.22715
2	-8.22964
▁לכל	-8.23106
▁בה	-8.23621
▁במהלך	-8.24344
▁شخص	-8.24388
▁C	-8.24572
יים	-8.24693
▁7	-8.24813
▁الخاص	-8.24857
▁آخر	-8.25674
ש	-8.25691
▁العديد	-8.25805
▁שם	-8.25884
▁א	-8.26236
▁الولايات	-8.26311
▁ست	-8.26944
▁له	-8.26957
▁أجل	-8.27348
▁18	-8.27588
▁שלא	-8.2799
ُ	-8.28168
▁בשנת	-8.2825
▁ف	-8.28648
▁כן	-8.29077
▁بها	-8.2976
▁להם	-8.29772
▁20	-8.30366
]	-8.30595
▁جدا	-8.30805
▁الكثير	-8.30975
▁الت	-8.31107
▁ثم	-8.31869
▁به	-8.32161
▁العام	-8.32169
▁שמ	-8.32536
▁أحد	-8.32841
▁אי	-8.33231
▁وقد	-8.33232
▁אותם	-8.33368
▁8	-8.34132
▁الا	-8.3437
يات	-8.34414
▁أيضًا	-8.3452
▁لذلك	-8.34724
▁مكان	-8.3485
د	-8.35002
B	-8.35219
y	-8.35832
▁نحن	-8.35874
▁בעולם	-8.36697
יו	-8.36735
▁שלה	-8.36985
▁عدد	-8.37009
▁الحياة	-8.3701
▁מת	-8.3721
▁وهو	-8.37391
تها	-8.3798
▁חלק	-8.38653
▁שיש	-8.38995
▁אלא	-8.39607
▁שנה	-8.39914
1	-8.40329
كم	-8.40419
▁ومن	-8.40566
▁לקבל	-8.40786
▁لقد	-8.40923
▁מידע	-8.40949
ד	-8.40967
يا	-8.41
▁«	-8.41059
▁15	-8.41128
▁אחרי	-8.41314
▁والتي	-8.41323
),	-8.42256
▁أنا	-8.42397
ج	-8.42431
▁שהם	-8.42506
▁ومع	-8.42942
ز	-8.43052
▁שבו	-8.43118
▁להשתמש	-8.43579
ק	-8.44169
▁المعلومات	-8.44197
▁الحصول	-8.44271
▁צ	-8.4428
S	-8.44439
▁בני	-8.44662
▁אמר	-8.4485
▁דרך	-8.44899
▁بما	-8.45209
▁12	-8.45747
َ	-8.45905
▁הספר	-8.46162
▁وا	-8.4664
ע	-8.47502
▁الأمر	-8.47601
▁سنوات	-8.4762
▁عمل	-8.4769
▁طريق	-8.47728
▁30	-8.47775
▁הה	-8.47887
נה	-8.47894
C	-8.48318
▁אתם	-8.48396
ما	-8.48464
ل	-8.48469
▁בדרך	-8.48604
▁فيها	-8.48683
ני	-8.48792
▁مجموعة	-8.49032
▁T	-8.49208
▁عليه	-8.49461
▁הראשון	-8.49529
أ	-8.49599
▁لديك	-8.49846
▁עדיין	-8.49903
▁כאן	-8.50127
3	-8.50269
▁תמיד	-8.50904
▁F	-8.51665
▁بالنسبة	-8.51825
▁הת	-8.51857
▁P	-8.51946
▁لها	-8.52267
▁שב	-8.52335
▁פעם	-8.52396
מה	-8.52544
D	-8.52554
▁בבית	-8.52695
▁חיים	-8.52894
▁الأولى	-8.52919
ف	-8.5348
4	-8.53521
▁כלל	-8.5363
▁לב	-8.53701
▁برنامج	-8.54002
تي	-8.54344
▁ليست	-8.54396
er	-8.54521
▁נגד	-8.55417
▁M	-8.55705
▁كبيرة	-8.55887
▁[	-8.55966
▁جديدة	-8.56139
▁بل	-8.56346
▁عبر	-8.56415
تك	-8.56442
▁האדם	-8.56555
ع	-8.56723
▁אינו	-8.5721
▁مختلفة	-8.575
▁أنها	-8.57521
▁במשך	-8.5774
▁ע	-8.57824
ذ	-8.57902
או	-8.58041
▁لأن	-8.58369
▁سن	-8.58564
▁חשוב	-8.58592
▁לראות	-8.58811
▁מו	-8.58844
ٍ	-8.58873
▁9	-8.5916
▁אפילו	-8.59505
▁الأول	-8.59614
▁שונים	-8.59833
",	-8.60104
▁אף	-8.60153
com	-8.60217
▁הזמן	-8.60571
▁מדי	-8.60641
▁كيفية	-8.60691
נים	-8.60743
في	-8.60839
▁עכשיו	-8.61082
لا	-8.61159
▁החיים	-8.61425
ّة	-8.61587
ט	-8.62
e	-8.62012
▁وهذا	-8.62105
▁لو	-8.62236
▁ק	-8.62252
▁مما	-8.62265
כ	-8.62274
▁D	-8.62587
ر	-8.62885
▁بسبب	-8.63002
▁الطلاب	-8.63065
▁كبير	-8.63236
A	-8.63272
▁שי	-8.63363
▁שלכם	-8.63638
▁الأعمال	-8.63794
G	-8.6382
מת	-8.64413
▁إ	-8.64485
▁لماذا	-8.64578
▁הברית	-8.64802
▁سنة	-8.6486
לה	-8.65064
▁تلك	-8.653
▁כיצד	-8.65339
▁E	-8.65443
▁الأخرى	-8.65646
▁למ	-8.65756
▁لمدة	-8.65946
▁עבודה	-8.66292
▁H	-8.66404
▁מן	-8.66588
▁מקום	-8.66666
▁أكبر	-8.67409
▁للم	-8.67752
▁במ	-8.68136
▁מאז	-8.68633
▁الأطفال	-8.68778
▁سبيل	-8.69039
▁ס	-8.69069
▁הן	-8.69207
▁عليها	-8.69481
כם	-8.69595
▁بأن	-8.69644
▁ضد	-8.69658
▁אותה	-8.69759
▁The	-8.70005
▁الأ	-8.70136
▁כולל	-8.70477
ح	-8.70513
ף	-8.70548
▁فيه	-8.70644
▁ذات	-8.7083
▁تحت	-8.70936
▁המדינה	-8.70962
▁أول	-8.71186
▁פשוט	-8.71373
▁الأكثر	-8.71386
؛	-8.7151
▁موقع	-8.71611
▁المثال	-8.71704
▁..	-8.71898
▁درجة	-8.72075
P	-8.7226
▁כפי	-8.72521
▁وقال	-8.7272
ِ	-8.72747
▁הכל	-8.73147
▁الرغم	-8.73158
▁قال	-8.73167
▁11	-8.73226
▁عليك	-8.73283
▁ד	-8.73465
אני	-8.73579
▁בתוך	-8.73604
▁רב	-8.73788
▁קשה	-8.73915
▁لدينا	-8.74059
▁لت	-8.74164
▁הו	-8.7452
▁وهي	-8.74533
▁למה	-8.74708
▁سيكون	-8.75016
▁[+]	-8.75055
▁ילדים	-8.75166
מים	-8.75687
▁؟	-8.75708
▁أنت	-8.75717
▁نفس	-8.75718
▁وجود	-8.7576
פי	-8.75881
יש	-8.76091
▁جديد	-8.76156
▁يكن	-8.7624
▁إلا	-8.76282
▁أقل	-8.76505
▁למצוא	-8.76519
פת	-8.76592
▁يوجد	-8.76652
▁גדול	-8.77062
▁הייתה	-8.77092
▁أثناء	-8.77197
▁העבודה	-8.77254
▁חדש	-8.7731
▁تحتاج	-8.77425
▁שעות	-8.77456
▁الإنترنت	-8.77456
▁הראשונה	-8.77577
▁משהו	-8.77818
▁معظم	-8.77837
▁במיוחד	-8.78312
▁מערכת	-8.78343
▁אפשר	-8.78503
M	-8.78596
▁רוב	-8.78971
▁يُ	-8.79238
▁Windows	-8.79529
▁الإ	-8.7956
▁عملية	-8.79693
▁نهاية	-8.79734
▁לפי	-8.79767
▁G	-8.79851
تين	-8.79852
▁نفسه	-8.79912
▁לכם	-8.79945
’	-8.80188
▁نحو	-8.80401
▁وضع	-8.80433
▁אומר	-8.80462
▁[-]	-8.80537
▁ח	-8.80559
ז	-8.80709
t	-8.80733
▁عدم	-8.80814
ص	-8.80931
▁במקום	-8.8138
▁ماذا	-8.81572
▁نظام	-8.81723
▁حالة	-8.8181
F	-8.81892
נ	-8.82144
n	-8.82267
▁المزيد	-8.82307
p	-8.82703
▁ع	-8.82764
▁אלוהים	-8.82854
זה	-8.82898
▁of	-8.82899
al	-8.83048
▁14	-8.83437
▁צריכים	-8.84035
▁שנ	-8.84204
ض	-8.84406
يّة	-8.84857
▁للغاية	-8.84892
▁البحث	-8.84922
▁كم	-8.84937
▁מחקר	-8.85101
▁100	-8.85229
▁למרות	-8.85264
▁קל	-8.85324
▁R	-8.85327
▁باستخدام	-8.85439
▁ימים	-8.85718
▁فقد	-8.85833
a	-8.85849
▁פחות	-8.85877
▁رئيس	-8.85933
▁L	-8.86026
▁יודע	-8.86241
من	-8.86378
מי	-8.86409
▁מיליון	-8.86469
▁בנוסף	-8.86477
▁I	-8.86537
5	-8.86595
»	-8.87427
▁שוב	-8.87556
▁إدارة	-8.87556
▁מס	-8.87627
▁17	-8.87714
ed	-8.87869
o	-8.87891
▁أم	-8.87903
▁16	-8.87907
▁الأرض	-8.8797
▁קו	-8.87993
▁البيانات	-8.88384
▁נראה	-8.88452
▁يحدث	-8.88485
ינו	-8.88498
▁•	-8.88559
٪	-8.88638
▁حين	-8.8865
)،	-8.88764
▁الحرب	-8.88818
כל	-8.88877
▁כגון	-8.88995
▁مليون	-8.89106
▁تريد	-8.89121
▁הנ	-8.89253
▁القيام	-8.89681
in	-8.89703
▁القانون	-8.8975
▁לקחת	-8.89801
▁כמעט	-8.89878
▁נשים	-8.89892
▁ביום	-8.8997
▁جامعة	-8.89989
▁الأمريكية	-8.90318
ث	-8.90522
وس	-8.90577
▁13	-8.90601
▁יכולה	-8.90709
▁اسرائيل	-8.90932
▁K	-8.9099
▁העיר	-8.91317
▁שזה	-8.91368
▁ולה	-8.91447
▁אותך	-8.91485
▁בלתי	-8.91498
▁יו	-8.91501
▁الن	-8.91694
▁מכן	-8.91778
▁שימוש	-8.9188
▁دولة	-8.919
▁אחרות	-8.92023
▁באמת	-8.92078
▁الدولة	-8.92178
▁لكل	-8.92237
▁الواقع	-8.92373
▁רבות	-8.92424
▁שאני	-8.92437
▁N	-8.92602
נית	-8.92626
▁דקות	-8.928
ً	-8.92843
▁لعبة	-8.92862
▁לכן	-8.92927
▁يبدو	-8.9304
▁الإنسان	-8.93223
▁כש	-8.9329
ין	-8.93339
▁תהיה	-8.9377
▁إنه	-8.93846
▁بالإضافة	-8.93875
▁خاصة	-8.93975
▁الع	-8.94115
▁البرنامج	-8.94155
▁ش	-8.94192
▁הכי	-8.94386
H	-8.94424
▁50	-8.94501
▁المدينة	-8.9461
▁يعني	-8.94715
▁בעלי	-8.94735
▁الرئيسية	-8.94887
▁האלה	-8.95028
ول	-8.95244
ير	-8.95285
▁שתי	-8.95298
▁בזמן	-8.95328
▁اختيار	-8.95422
▁وليس	-8.95429
▁معلومات	-8.9546
▁בן	-8.95549
▁مجال	-8.9556
ing	-8.9564
▁الموقع	-8.95951
יהם	-8.96049
▁בישראל	-8.96068
אי	-8.96142
▁وب	-8.96164
▁أيام	-8.96296
▁אולי	-8.96565
▁أنحاء	-8.96586
▁وكان	-8.96657
▁בלי	-8.96682
כה	-8.96713
מן	-8.96989
خ	-8.97271
▁داخل	-8.97626
▁קרובות	-8.97656
▁ראש	-8.97703
▁ساعة	-8.97797
▁المنطقة	-8.97833
▁شركة	-8.97845
▁الماضي	-8.97973
▁تعرف	-8.98046
ش	-8.981
▁דברים	-8.98463
▁תוכנית	-8.98497
▁תוך	-8.98549
▁די	-8.98629
▁קשר	-8.98635
נות	-8.98753
▁לפחות	-8.98867
▁משחק	-8.992
▁החברה	-8.99366
רה	-8.99445
▁שת	-8.99542
▁ליצור	-8.99726
▁العلاج	-8.9979
▁Google	-9.00068
▁המו	-9.00156
K	-9.00159
▁لهم	-9.00266
d	-9.00286
▁יחד	-9.00302
▁ספר	-9.00376
▁השני	-9.0042
▁حل	-9.00487
▁الثاني	-9.0056
לא	-9.00586
▁מכל	-9.00589
or	-9.00639
ق	-9.00777
▁מהם	-9.00814
▁الح	-9.00838
צ	-9.01125
▁الجسم	-9.01128
ط	-9.01132
▁لدى	-9.01143
L	-9.01181
▁الطفل	-9.01305
▁نوع	-9.0152
▁تغيير	-9.01583
▁מאשר	-9.01629
i	-9.01796
▁מעל	-9.01823
▁24	-9.01895
▁מנת	-9.02046
▁נוסף	-9.021
▁فترة	-9.02136
▁الحكومة	-9.02143
▁בא	-9.0215
▁ללמוד	-9.02446
m	-9.02503
▁»	-9.02665
פה	-9.02931
▁الوصول	-9.02949
▁השנה	-9.0301
▁מספיק	-9.03049
يك	-9.033
אן	-9.03587
▁אותי	-9.03594
▁שהיא	-9.039
▁לעתים	-9.03906
6	-9.03988
▁רוצים	-9.04133
▁25	-9.04134
▁גבוהה	-9.04258
».	-9.04344
▁*	-9.04354
תם	-9.04378
▁+	-9.04448
ידי	-9.04451
▁המשחק	-9.04623
T	-9.0506
تنا	-9.05149
▁הדבר	-9.05316
▁W	-9.05333
▁יי	-9.05364
▁להת	-9.05442
דה	-9.05458
כי	-9.05517
يين	-9.05557
▁دولار	-9.05694
▁الدولية	-9.05702
▁בגלל	-9.05924
▁است	-9.05986
▁اسم	-9.06076
▁الأقل	-9.062
▁עושה	-9.06314
7	-9.06645
▁تقديم	-9.06814
▁النساء	-9.06941
▁לדעת	-9.07089
▁مستوى	-9.07155
▁עצמו	-9.07169
▁לעזור	-9.07322
▁حوالي	-9.07356
en	-9.07593
▁V	-9.07656
يد	-9.07775
▁مدينة	-9.0778
מות	-9.07812
ור	-9.07814
▁التعليم	-9.07864
▁المنزل	-9.07953
▁حال	-9.07975
▁מדינות	-9.08136
▁הבית	-9.08177
on	-9.08257
▁היתה	-9.08297
▁الأحيان	-9.08335
N	-9.08407
▁الجديدة	-9.08409
▁צורך	-9.08511
▁للحصول	-9.08567
(	-9.08608
▁ثلاثة	-9.08739
▁אחרת	-9.08797
▁אינם	-9.09112
▁حد	-9.09251
▁חודשים	-9.09259
▁מתוך	-9.09344
▁لنا	-9.09392
▁تعمل	-9.09506
▁באתר	-9.09596
▁ארצות	-9.09601
▁הממשלה	-9.09637
▁أمر	-9.09837
▁الدم	-9.10011
ام	-9.10216
▁ועל	-9.10234
▁النظام	-9.10274
l	-9.10394
▁לגבי	-9.10749
▁الشخصية	-9.1075
כים	-9.10797
▁להגיע	-9.11088
V	-9.11129
▁הגוף	-9.11205
▁אינה	-9.11261
تهم	-9.11433
ور	-9.11551
▁عرض	-9.1158
בי	-9.11641
▁שום	-9.11736
▁סוג	-9.11911
▁طويلة	-9.12053
▁שונות	-9.1209
▁الأخيرة	-9.12099
▁טיפול	-9.12175
▁פעולה	-9.12243
▁الأشخاص	-9.12392
▁يا	-9.12401
▁הבא	-9.12455
ץ	-9.12481
▁هم	-9.12491
▁ונ	-9.12559
יר	-9.12572
▁0	-9.12648
▁בת	-9.12789
▁لديهم	-9.12801
▁انه	-9.12844
שה	-9.13034
▁וזה	-9.13068
▁بالفعل	-9.13383
אל	-9.13646
▁يت	-9.13802
اس	-9.13925
▁בצורה	-9.13997
▁جيدة	-9.14168
▁תחת	-9.14218
▁מלא	-9.14258
▁منطقة	-9.14311
▁והוא	-9.14318
اد	-9.14323
תו	-9.14536
▁O	-9.14626
▁يعمل	-9.14756
an	-9.1483
▁לעבוד	-9.14861
▁الحمل	-9.14946
▁לשמור	-9.14955
▁مركز	-9.14998
▁ארה	-9.15019
▁בעוד	-9.1532
W	-9.15375
▁נתונים	-9.15423
▁באזור	-9.15445
▁לכך	-9.15472
b	-9.15557
▁طريقة	-9.15718
▁وأن	-9.16124
▁البلاد	-9.1614
▁دي	-9.16171
▁אלו	-9.16202
▁ولم	-9.16299
▁בהם	-9.16537
k	-9.16541
▁בתי	-9.1656
▁ج	-9.16797
נת	-9.16929
▁تقدم	-9.17248
▁$	-9.17299
الم	-9.174
▁בלבד	-9.17486
ظ	-9.17561
▁קצת	-9.1771
לו	-9.17711
▁لديه	-9.17782
▁בתחום	-9.1789
8	-9.17921
▁وعلى	-9.18027
▁וגם	-9.18057
r	-9.18058
▁בעת	-9.18134
▁טובה	-9.18168
▁כולם	-9.18168
غ	-9.18344
g	-9.18379
▁لأنه	-9.18412
▁المجتمع	-9.18423
▁במקרה	-9.18462
▁40	-9.18498
▁ينبغي	-9.18681
▁جهاز	-9.18714
▁בשל	-9.18783
▁מים	-9.18888
▁اللعبة	-9.18912
▁وما	-9.18913
▁החל	-9.18931
▁تحديد	-9.19023
▁عدة	-9.19156
לי	-9.19165
▁לבחור	-9.19461
▁סי	-9.1953
▁נכון	-9.19584
כות	-9.1973
▁بم	-9.19738
تم	-9.19805
▁المال	-9.19948
▁ربما	-9.20027
▁להבין	-9.20239
▁הזו	-9.20346
▁فيلم	-9.20386
▁جانب	-9.20405
▁فهم	-9.20423
▁تُ	-9.20449
▁خاص	-9.20452
-19	-9.20452
▁ולכן	-9.20482
▁19	-9.20584
▁ويمكن	-9.20621
▁הדרך	-9.20675
▁נוספים	-9.20682
בו	-9.20773
ْ	-9.20895
▁חדשים	-9.20929
▁حياة	-9.20941
▁دائما	-9.21015
▁جيد	-9.21216
▁مختلف	-9.21341
▁כזה	-9.2138
הם	-9.21444
لي	-9.21447
פים	-9.21544
מו	-9.21642
▁כיום	-9.21685
▁לבצע	-9.219
▁באינטרנט	-9.21917
מר	-9.2194
▁Microsoft	-9.22039
▁الجديد	-9.22106
9	-9.22174
כת	-9.22235
▁الخ	-9.22253
▁العثور	-9.22386
▁כסף	-9.22391
▁הח	-9.22432
▁الاتصال	-9.22483
▁الشخص	-9.22558
▁חייב	-9.22723
▁فوق	-9.22741
▁لهذا	-9.22758
يه	-9.2282
▁ברחבי	-9.22906
▁لديها	-9.2303
▁وكذلك	-9.23046
وي	-9.23084
▁עשוי	-9.23133
▁أمام	-9.23189
c	-9.23208
▁دقيقة	-9.23261
▁בריאות	-9.23266
▁החוק	-9.23286
▁נמצא	-9.23299
▁الطاقة	-9.23423
▁لأ	-9.2352
▁أنك	-9.23646
▁الكمبيوتر	-9.2367
▁ون	-9.23768
▁לתת	-9.23798
▁العامة	-9.23815
▁הזאת	-9.23915
▁الأسبوع	-9.23945
▁صغيرة	-9.23953
us	-9.23991
▁الجيش	-9.24059
▁بناء	-9.24076
▁النظر	-9.24149
▁فمن	-9.24165
▁التجارية	-9.24271
▁الق	-9.24277
ונים	-9.24338
▁الرئيس	-9.2437
▁اللغة	-9.24516
ווה	-9.24564
▁بدون	-9.24687
▁الف	-9.24882
h	-9.24888
x	-9.24988
▁تحقيق	-9.25091
▁מצב	-9.25319
▁مت	-9.2533
אם	-9.2557
▁الطريق	-9.25581
▁شهر	-9.25606
ئ	-9.2562
▁منها	-9.25652
די	-9.25656
▁القدس	-9.25657
ום	-9.25701
▁בעיות	-9.25812
▁بي	-9.25812
כו	-9.25965
f	-9.25989
רי	-9.26082
▁أيضاً	-9.26093
th	-9.26195
▁عادة	-9.2625
▁تطوير	-9.26281
▁الطريقة	-9.26293
▁2017	-9.2635
▁الدولي	-9.26397
▁الماء	-9.26398
פ	-9.26403
▁او	-9.26435
▁س	-9.26476
▁بواسطة	-9.26538
يل	-9.26574
▁طلب	-9.26595
▁بذلك	-9.26652
▁וש	-9.2675
▁פ	-9.26827
רים	-9.26846
R	-9.26887
▁הא	-9.2695
▁the	-9.26992
▁תוכל	-9.27038
▁לספק	-9.27059
יך	-9.27103
▁أعلى	-9.27245
▁عشر	-9.27373
צה	-9.27386
קו	-9.27429
▁2015	-9.27627
▁جزء	-9.27672
בה	-9.27693
▁הש	-9.27758
▁السنة	-9.27766
....	-9.27999
il	-9.28034
E	-9.28055
▁صحيح	-9.28163
▁كثير	-9.28174
▁تاريخ	-9.28234
▁الأشياء	-9.28311
▁דולר	-9.28372
▁الب	-9.28372
קי	-9.28493
"،	-9.28497
▁פעמים	-9.28561
▁שלושה	-9.28778
%	-9.28781
▁يقول	-9.28799
▁تستخدم	-9.28885
וב	-9.28918
▁מחדש	-9.29084
▁ואז	-9.29105
▁דו	-9.2916
َّ	-9.29214
▁הארץ	-9.2922
▁إجراء	-9.29327
es	-9.29402
le	-9.29433
על	-9.29624
▁شكل	-9.29633
▁والأ	-9.29637
▁חי	-9.29637
▁أنواع	-9.29695
▁שירות	-9.29732
▁ז	-9.298
▁אנשי	-9.29871
▁تقوم	-9.2992
اف	-9.30054
פו	-9.30117
▁האי	-9.30214
▁#	-9.30497
▁לשנות	-9.30672
▁להפוך	-9.30704
▁בהתאם	-9.30774
▁|	-9.30808
O	-9.30822
▁حساب	-9.30848
▁عالية	-9.30885
▁إنشاء	-9.30931
▁פני	-9.30982
▁ט	-9.31012
▁أشهر	-9.31031
▁أوروبا	-9.31035
▁2019	-9.3111
▁בר	-9.31241
▁כוח	-9.31297
▁להשיג	-9.31327
▁التالية	-9.31506
▁וי	-9.31533
▁הר	-9.31559
it	-9.31567
▁הטוב	-9.31569
▁יודעים	-9.31581
קה	-9.31782
▁בדיוק	-9.31785
يت	-9.31907
▁العالمية	-9.31966
▁خارج	-9.32019
▁الثانية	-9.32171
10	-9.32467
▁ونحن	-9.32504
ود	-9.32534
000	-9.32665
כן	-9.3271
▁2018	-9.32746
▁מר	-9.32794
▁رقم	-9.32864
▁שאנחנו	-9.32886
يس	-9.32947
▁שינוי	-9.3298
▁والذي	-9.33135
▁الطعام	-9.33199
▁לחץ	-9.33265
▁المهم	-9.33394
▁تماما	-9.33432
▁الآخرين	-9.33571
▁אצל	-9.33626
▁ללכת	-9.33636
▁השימוש	-9.33711
▁2016	-9.33765
ינה	-9.34175
▁تناول	-9.34232
▁زيادة	-9.34236
▁מול	-9.34251
▁משתמשים	-9.3427
دي	-9.34289
▁2013	-9.34348
▁الج	-9.34351
اب	-9.34438
بي	-9.34461
▁ساعات	-9.34496
▁למנוע	-9.34625
▁עובד	-9.34666
▁לדבר	-9.34804
▁60	-9.34812
שת	-9.34891
יק	-9.35049
▁בעיקר	-9.35098
▁פעילות	-9.35155
▁21	-9.35157
▁האחרון	-9.35175
▁ידע	-9.35206
▁מישהו	-9.35249
▁קטן	-9.35315
▁كانوا	-9.35374
▁العملية	-9.35414
▁המידע	-9.35616
▁ثلاث	-9.35621
et	-9.35714
▁משרד	-9.35806
هن	-9.35835
▁يعرف	-9.35878
▁איש	-9.359
לים	-9.35922
▁כמובן	-9.35939
▁ככל	-9.36085
וס	-9.36105
ונות	-9.36128
يم	-9.36163
▁ממש	-9.3619
▁למעשה	-9.36253
▁كذلك	-9.36288
هما	-9.364
▁المستقبل	-9.36455
פות	-9.36533
▁وبعد	-9.36629
▁تت	-9.36684
▁גבוה	-9.36709
كل	-9.36727
▁المواد	-9.36734
▁الشركة	-9.36765
▁معرفة	-9.36769
▁כלי	-9.3692
▁علم	-9.37089
יד	-9.37309
עה	-9.37364
של	-9.37402
▁كامل	-9.37499
▁المت	-9.37613
▁הגדול	-9.37685
▁الجميع	-9.37823
▁غ	-9.37857
▁بسرعة	-9.37914
פר	-9.37942
▁הייתי	-9.3803
▁علي	-9.3812
▁رجل	-9.38125
ימה	-9.38127
▁הג	-9.38164
▁السبب	-9.38198
▁חדשה	-9.3831
▁القرن	-9.38555
سي	-9.3858
▁האו	-9.3858
▁توجد	-9.38581
▁לש	-9.38625
فر	-9.38641
▁ר	-9.38706
▁الصين	-9.38836
מש	-9.39097
▁بت	-9.39113
▁זכויות	-9.3922
▁الش	-9.3926
▁להי	-9.39364
▁לחלוטין	-9.39435
ار	-9.39699
▁למשל	-9.39734
▁חושב	-9.3976
▁ول	-9.39798
▁הילד	-9.39812
▁شراء	-9.39849
▁قائمة	-9.39897
▁نقل	-9.39905
▁בעל	-9.39951
▁النار	-9.40032
▁وسوف	-9.40085
▁המחקר	-9.40293
▁مصر	-9.40364
▁المكان	-9.4037
u	-9.40373
▁با	-9.40431
▁אוהב	-9.4059
▁فإنه	-9.40674
▁أنّ	-9.40679
וני	-9.40752
▁برامج	-9.4085
▁حقوق	-9.4087
▁تأثير	-9.41141
▁גדולה	-9.41173
▁ואני	-9.41203
▁الرجال	-9.41241
יל	-9.41269
▁الحالات	-9.41276
▁חדשות	-9.41293
▁אור	-9.41454
اع	-9.41462
▁רכב	-9.41507
▁الأفضل	-9.41555
▁الاجتماعية	-9.41563
▁חוק	-9.41676
▁السلام	-9.41683
▁تصميم	-9.41705
▁فيما	-9.41766
▁مر	-9.41851
▁ر	-9.42032
يف	-9.42036
דות	-9.42056
▁المختلفة	-9.42158
▁ألف	-9.42324
▁عالم	-9.42377
▁שר	-9.42393
00	-9.42495
▁להתחיל	-9.42515
▁יהיו	-9.42537
▁תוכניות	-9.42637
רות	-9.42672
▁ראשון	-9.42806
▁خدمة	-9.42843
▁בטוח	-9.42844
▁זהו	-9.42859
▁שהו	-9.42913
אות	-9.42999
▁לאורך	-9.43065
▁מדינה	-9.43075
▁فعل	-9.43125
עד	-9.43225
▁تعلم	-9.4329
لم	-9.43355
טר	-9.43442
▁שבה	-9.43556
▁כאלה	-9.43587
▁ص	-9.43739
▁يزال	-9.43772
ar	-9.43792
▁وأضاف	-9.43797
ירה	-9.43842
وب	-9.43914
▁עסקים	-9.43935
▁الحالة	-9.44011
▁الشركات	-9.44031
▁وحتى	-9.44089
▁إعادة	-9.44108
▁האינטרנט	-9.44123
▁والت	-9.44211
▁الرئيسي	-9.44254
ויות	-9.443
▁החדש	-9.44395
▁مدى	-9.44458
▁המשפט	-9.44472
▁גיל	-9.44567
▁تكن	-9.44579
▁סוף	-9.44585
50	-9.44686
▁2010	-9.44689
▁X	-9.44811
▁وفقا	-9.4483
▁שלוש	-9.45117
▁سيتم	-9.45187
▁ספק	-9.45227
ול	-9.45229
▁يتعلق	-9.45301
▁לתוך	-9.45334
▁الإسرائيلي	-9.45357
▁>	-9.45381
▁תי	-9.45383
וק	-9.45416
▁الدول	-9.45466
يق	-9.45506
▁قانون	-9.45547
צי	-9.45584
▁تشغيل	-9.45668
▁مجرد	-9.45675
▁الانترنت	-9.45685
נס	-9.45689
وية	-9.45704
▁الس	-9.45734
▁نفسها	-9.45783
▁تشي	-9.45815
▁J	-9.46075
▁نفسك	-9.46129
▁روسيا	-9.46217
▁הדברים	-9.46248
▁مباشرة	-9.4631
▁النوع	-9.46382
▁ق	-9.46418
▁לבית	-9.46464
▁وذلك	-9.46476
وم	-9.46486
רו	-9.4649
▁2014	-9.46502
▁وزارة	-9.46696
▁السنوات	-9.46723
▁الان	-9.46793
▁השנים	-9.46824
ייה	-9.46842
▁בפני	-9.47097
وف	-9.47118
ست	-9.4738
▁ברור	-9.47381
▁ניהול	-9.47453
▁באותו	-9.47558
بر	-9.47579
▁حدث	-9.47582
▁الك	-9.47714
▁Office	-9.47776
▁يقوم	-9.47789
▁לדוגמה	-9.47846
▁גישה	-9.4786
▁חברות	-9.47907
▁מדוע	-9.47933
▁إنها	-9.47933
▁يسمح	-9.47933
▁شبكة	-9.47939
▁البريد	-9.48004
يب	-9.48109
▁שנת	-9.48158
▁الر	-9.48207
▁הביטחון	-9.48211
رة	-9.48232
▁הס	-9.48315
▁علاج	-9.48357
▁؛	-9.48384
▁הטיפול	-9.48416
مة	-9.48528
ol	-9.48586
▁&	-9.48608
▁المرض	-9.48724
▁שונה	-9.48781
▁הללו	-9.48813
▁22	-9.48822
▁ح	-9.48928
ٌ	-9.48983
▁במהירות	-9.49002
▁تطبيق	-9.49011
▁إضافة	-9.49017
▁”	-9.4904
▁مقابل	-9.49041
0	-9.49063
▁الاتحاد	-9.49079
▁לגרום	-9.49136
X	-9.49198
▁הבריאות	-9.49225
▁הי	-9.49292
▁בשנה	-9.49309
▁מפני	-9.49346
▁صورة	-9.49382
▁תכנית	-9.49397
▁مشكلة	-9.49438
▁האחרונות	-9.49441
▁الحب	-9.49455
جر	-9.49456
▁תמונות	-9.49472
▁الإلكتروني	-9.49492
▁المنتج	-9.49661
▁المدرسة	-9.49687
▁الرجل	-9.49757
▁يصل	-9.49839
يّ	-9.49861
▁تظهر	-9.4994
▁(19	-9.49968
▁دراسة	-9.50085
יג	-9.50131
גי	-9.502
▁حجم	-9.50327
▁מקבל	-9.50349
▁نعم	-9.50434
חת	-9.50441
ער	-9.50441
Y	-9.50445
▁الإنجليزية	-9.50508
تر	-9.50574
▁بينما	-9.50719
▁אולם	-9.50747
▁أصبح	-9.50778
▁מקור	-9.50883
در	-9.50904
▁بشأن	-9.5097
مر	-9.50971
▁فرصة	-9.50989
▁לשחק	-9.51004
▁وبالتالي	-9.5104
▁מסוימים	-9.51128
▁עליו	-9.51133
ונה	-9.51141
▁فتح	-9.51182
▁ייתכן	-9.51326
مثل	-9.51349
عة	-9.5137
▁بحاجة	-9.51495
▁أين	-9.51525
▁الإسرائيلية	-9.51531
▁بداية	-9.5159
re	-9.516
▁תו	-9.51653
▁الممكن	-9.5171
▁سواء	-9.51803
▁2012	-9.51828
▁מש	-9.51976
▁ולאחר	-9.52089
▁خط	-9.52282
▁منهم	-9.5237
סי	-9.52403
טי	-9.52417
▁וכן	-9.52426
اق	-9.5252
▁לעולם	-9.52547
لو	-9.52563
ur	-9.52594
▁خ	-9.52612
▁and	-9.52653
te	-9.52661
קס	-9.52704
▁هؤلاء	-9.52794
▁עליך	-9.52896
▁الأمن	-9.52896
▁אותנו	-9.52942
▁غرفة	-9.52945
▁סטודנטים	-9.53013
▁עושים	-9.5303
▁ומה	-9.53047
▁בקרב	-9.53097
▁משתמש	-9.5312
▁צריכה	-9.53124
פור	-9.53149
▁سيارة	-9.53154
▁הנתונים	-9.53169
▁المنتجات	-9.53203
לת	-9.5321
▁نتائج	-9.53249
نت	-9.53391
▁التالي	-9.53453
▁אר	-9.53555
▁نصف	-9.53603
אר	-9.53605
▁איכות	-9.5362
▁التاريخ	-9.53653
▁ילד	-9.53778
▁ترغب	-9.53782
▁الفيديو	-9.53856
עת	-9.53984
▁מגוון	-9.53985
▁يجعل	-9.54109
יי	-9.54142
el	-9.54185
بة	-9.54189
▁بدأت	-9.54278
▁מדיניות	-9.5435
▁בסיס	-9.54394
أو	-9.54401
יע	-9.54437
▁תוצאות	-9.54539
דו	-9.54664
▁U	-9.54673
▁الجهاز	-9.54684
▁רחב	-9.54875
▁الأساسية	-9.54887
▁السوق	-9.54903
▁התלמידים	-9.54956
▁الفلسطينيين	-9.54984
▁الوضع	-9.55008
▁يؤدي	-9.5508
▁הילדים	-9.55142
مان	-9.55178
▁وجه	-9.55196
▁النوم	-9.55205
ly	-9.55296
▁תוכלו	-9.55345
▁הק	-9.55346
▁اي	-9.55445
▁وإ	-9.55508
▁جعل	-9.55552
▁كتاب	-9.55566
▁البحر	-9.55574
▁السابق	-9.55583
▁ויש	-9.55642
▁איראן	-9.55662
▁עשויים	-9.55688
▁اليهود	-9.5569
▁תואר	-9.55721
▁إيران	-9.55727
▁המצב	-9.55727
▁לפעמים	-9.55744
▁כעת	-9.55824
▁سبب	-9.55834
▁الصور	-9.55858
▁الأوروبي	-9.55895
▁الجزء	-9.56016
▁סביב	-9.56065
▁חבר	-9.56071
▁الحال	-9.56072
▁علينا	-9.56086
▁אתר	-9.56098
▁الكتاب	-9.56148
נג	-9.56234
▁انها	-9.56275
▁مرض	-9.56281
▁الصورة	-9.56366
־	-9.5638
▁الفلسطينية	-9.56401
▁السكان	-9.56456
▁صور	-9.56484
▁الوزن	-9.5655
▁الشرطة	-9.56664
נר	-9.56678
▁הנה	-9.56804
▁האנשים	-9.56892
▁ستكون	-9.56924
▁أساس	-9.5701
▁בי	-9.5704
▁تصل	-9.57135
وت	-9.57175
▁المياه	-9.5719
וט	-9.57203
צל	-9.57276
z	-9.57349
▁יתר	-9.57363
▁الدراسة	-9.57399
is	-9.57435
סה	-9.57511
▁הבינלאומי	-9.57555
▁حقيقة	-9.57671
▁לבין	-9.57707
▁לומר	-9.57717
▁أنهم	-9.57818
▁يريد	-9.57955
▁الموضوع	-9.57985
ia	-9.58
بل	-9.58007
▁الحقيقة	-9.58018
▁שאתם	-9.58041
▁الحد	-9.58182
▁כלומר	-9.58184
▁מגיע	-9.58319
רת	-9.58325
لة	-9.5835
▁מזון	-9.5835
▁الصحة	-9.58374
▁طفل	-9.58537
▁עובדים	-9.58576
▁ניסיון	-9.58605
▁دفع	-9.58655
▁קודם	-9.58674
▁ממשלת	-9.58679
▁حرب	-9.58684
▁باسم	-9.58747
חו	-9.58807
▁וכל	-9.5887
▁محاولة	-9.58947
▁Outlook	-9.59068
▁קצר	-9.59082
▁بكثير	-9.59145
גר	-9.59162
يون	-9.59169
▁הולך	-9.59214
▁يساعد	-9.59225
▁إطلاق	-9.59233
▁نظر	-9.59287
ורה	-9.59323
מל	-9.59334
▁השנייה	-9.59346
-1	-9.59538
▁בעבר	-9.59567
▁تن	-9.59608
▁היטב	-9.5963
▁الدراسات	-9.59637
גו	-9.59713
▁מתי	-9.59734
▁כה	-9.59794
كس	-9.59887
טו	-9.59915
▁הנשיא	-9.60032
▁התינוק	-9.60269
[	-9.60306
▁مُ	-9.6045
▁وسائل	-9.6049
▁אוניברסיטת	-9.60507
▁להמשיך	-9.60579
▁فال	-9.60632
▁מעט	-9.60688
▁دول	-9.6071
20	-9.60746
▁האתר	-9.60811
▁د	-9.60828
▁خطر	-9.61022
▁גברים	-9.61052
▁البيت	-9.61077
اح	-9.61144
▁רואה	-9.61154
▁المهنية	-9.6118
▁مرات	-9.61219
▁בש	-9.6128
▁דם	-9.61421
▁تجربة	-9.61479
▁התעופה	-9.61487
▁تحدث	-9.61521
19	-9.61611
▁دعم	-9.61635
▁ליד	-9.61646
حل	-9.61751
נא	-9.61773
وع	-9.61822
▁בשם	-9.61838
وز	-9.6191
▁تفعل	-9.61931
▁בעיה	-9.62087
צו	-9.62096
▁المن	-9.62104
▁الصعب	-9.62249
▁لكم	-9.62265
▁الحديث	-9.62329
▁قرار	-9.62365
▁התוכנית	-9.62434
تان	-9.62523
▁رد	-9.62529
▁מיד	-9.62535
وق	-9.62579
▁القديمة	-9.62676
▁المرأة	-9.62686
▁תהליך	-9.62781
תה	-9.6283
▁المناطق	-9.62959
▁بحيث	-9.63013
lo	-9.63019
▁לחיות	-9.63166
▁دور	-9.63166
▁المشكلة	-9.63239
▁العمر	-9.63267
▁كلمة	-9.63313
את	-9.63374
▁מהר	-9.63405
▁אש	-9.6343
▁מרכז	-9.63442
▁حسب	-9.63458
▁בנושא	-9.63525
▁האוויר	-9.63533
▁تبدأ	-9.63609
▁معينة	-9.63642
▁הלב	-9.63916
▁מוצרים	-9.63966
▁In	-9.63967
▁לשפר	-9.63987
▁اذا	-9.64008
▁צוות	-9.64024
▁طرق	-9.64128
▁במצב	-9.64132
▁الغ	-9.64139
▁מחוץ	-9.64188
▁המת	-9.64241
▁הרי	-9.64242
▁عاما	-9.64334
▁לקנות	-9.64404
▁قام	-9.64573
▁إليه	-9.64583
▁2008	-9.64599
▁الوحيد	-9.64603
▁حق	-9.64684
▁كلية	-9.64721
▁الخدمة	-9.64722
at	-9.64804
ad	-9.64847
דר	-9.64916
▁ممكن	-9.64952
زي	-9.65023
▁السيارات	-9.65042
▁מדובר	-9.65103
▁שש	-9.6511
▁האירופי	-9.65112
▁أهمية	-9.65125
▁מח	-9.65141
▁דרכים	-9.65185
סטר	-9.65214
▁قم	-9.65292
▁מאפשר	-9.65426
▁إليها	-9.65449
▁להתמודד	-9.65695
▁=	-9.65715
▁دائمًا	-9.65726
st	-9.65742
▁تصبح	-9.65763
▁2011	-9.65797
▁התיכון	-9.65819
▁العربية	-9.65851
▁وهناك	-9.6588
▁הגיע	-9.65977
▁מתחת	-9.66
▁نتيجة	-9.66001
▁البشرية	-9.66028
هل	-9.66185
▁حاجة	-9.662
▁قوة	-9.6624
סת	-9.66277
▁מסוגל	-9.6628
▁أعمال	-9.66282
וד	-9.66509
▁الحيوانات	-9.66576
▁שלום	-9.66639
صح	-9.66678
אט	-9.66683
▁سأ	-9.66696
▁حقا	-9.66786
▁s	-9.66794
▁يستطيع	-9.66914
▁לקרוא	-9.66923
▁بالم	-9.66934
▁חשבון	-9.66944
▁אלף	-9.66974
w	-9.67076
▁ישנם	-9.67087
▁מעבר	-9.67195
▁בעיר	-9.67224
▁الحفاظ	-9.67252
▁הבאים	-9.6732
חות	-9.67396
▁בחר	-9.67406
▁مل	-9.67484
▁لهذه	-9.67535
▁חברים	-9.67579
▁לח	-9.67654
▁המשפחה	-9.67785
▁يحتاج	-9.67794
اج	-9.67808
▁يستخدم	-9.67808
▁23	-9.67866
▁להגן	-9.67937
▁וידאו	-9.67942
ري	-9.67994
▁ترامب	-9.68047
▁משום	-9.68054
▁مهم	-9.68057
▁נוספת	-9.68067
على	-9.68077
?"	-9.68121
▁العليا	-9.68138
בר	-9.68155
▁تاي	-9.68165
11	-9.68252
▁موضوع	-9.68299
▁גר	-9.68333
יז	-9.68371
▁الصغيرة	-9.68551
▁שאין	-9.68589
▁רבה	-9.68614
دم	-9.68634
▁يمكننا	-9.68636
▁الآخر	-9.68667
▁יפה	-9.68692
▁מאות	-9.68731
▁ועוד	-9.68818
▁28	-9.6885
▁الصحية	-9.68855
▁בכך	-9.68922
▁חיי	-9.69014
▁أما	-9.69074
▁مهمة	-9.69111
▁כדור	-9.69161
▁الطبيعية	-9.69237
חל	-9.69261
▁והם	-9.69263
▁تحسين	-9.69269
▁בשלב	-9.6927
▁2007	-9.69287
▁تساعد	-9.69313
▁קר	-9.69319
▁مشروع	-9.69323
קים	-9.69356
גן	-9.69482
נט	-9.69509
حت	-9.69573
وه	-9.69645
▁الأمريكي	-9.6972
▁קורה	-9.6985
▁שנות	-9.69864
▁مساعدة	-9.69872
▁الوطني	-9.69941
▁بأ	-9.70059
▁רע	-9.70091
▁القدرة	-9.70098
▁الحق	-9.70098
▁تقريبا	-9.70144
▁למי	-9.70157
בים	-9.70169
▁ני	-9.70184
יון	-9.70267
▁אישי	-9.70338
اط	-9.70383
▁שו	-9.70406
▁وإذا	-9.70504
▁الحقيقي	-9.70532
▁מאוחר	-9.70541
▁الشعر	-9.70557
▁200	-9.70574
▁ألا	-9.70605
▁2009	-9.70612
▁שבועות	-9.70635
▁الجامعة	-9.7068
עים	-9.70706
▁כוחות	-9.70727
▁القلب	-9.70815
▁לעומת	-9.70926
שים	-9.71026
▁قتل	-9.71065
▁עצמך	-9.71066
▁הישראלי	-9.71092
–	-9.71199
רס	-9.71202
▁שכל	-9.71318
as	-9.71332
▁واسعة	-9.71336
▁لفترة	-9.71369
ומה	-9.71381
פא	-9.71438
▁للطلاب	-9.7149
▁לפתח	-9.71494
▁رؤية	-9.7155
▁سوريا	-9.71562
▁حماية	-9.71605
▁بدأ	-9.71628
v	-9.71735
▁كي	-9.71744
▁מדינת	-9.71749
▁وكل	-9.71827
▁منزل	-9.71831
▁מלאה	-9.7184
▁ועד	-9.71856
קל	-9.71887
▁מזה	-9.71933
▁منه	-9.71988
▁سم	-9.72029
▁بيت	-9.72047
▁إضافية	-9.72057
▁הז	-9.72065
▁משנה	-9.72067
▁مشاكل	-9.72078
▁الجانب	-9.72099
▁الشعب	-9.72149
פל	-9.72177
▁البعض	-9.72198
▁الهواء	-9.72241
عد	-9.72287
▁تزال	-9.7232
▁לשים	-9.72387
▁الخارجية	-9.72595
▁الضروري	-9.72668
am	-9.72668
دو	-9.72682
▁עצמם	-9.72809
فت	-9.72824
▁الطبيب	-9.7288
بو	-9.72896
▁ארגון	-9.72923
▁منع	-9.72934
▁מג	-9.72963
▁מתחיל	-9.72964
▁الشيء	-9.73103
▁توفر	-9.73156
▁ערך	-9.73164
▁Re	-9.73172
▁כמות	-9.73176
▁وأنا	-9.73191
I	-9.73209
▁שהיה	-9.73211
▁فا	-9.73215
▁قدم	-9.7329
▁يعد	-9.73348
▁المعرفة	-9.73402
▁يقدم	-9.73449
ילה	-9.73468
▁الشرق	-9.73523
▁דומה	-9.73525
▁היחיד	-9.73528
▁إي	-9.73601
▁בעקבות	-9.73613
▁בהחלט	-9.73636
▁نقطة	-9.73642
▁אירופה	-9.737
▁السفر	-9.73716
سم	-9.7372
▁בארה	-9.73873
▁חברת	-9.74038
▁כללי	-9.74124
▁فان	-9.74238
▁אלקטרוני	-9.74328
▁הפלסטינים	-9.74347
كر	-9.74361
▁משפחה	-9.744
ra	-9.74431
▁تشعر	-9.7445
▁جداً	-9.74452
ימים	-9.74544
▁in	-9.74551
▁חינוך	-9.74561
▁بطريقة	-9.7457
▁בשבוע	-9.74658
▁دقائق	-9.74699
▁الهاتف	-9.74702
▁بر	-9.74858
▁الشهر	-9.74899
▁רוסיה	-9.74935
▁טראמפ	-9.7499
▁הבעיה	-9.75001
▁מע	-9.75023
▁خدمات	-9.75097
▁المحلية	-9.75144
▁לת	-9.75152
▁توفير	-9.75165
▁כתב	-9.7522
▁للت	-9.75232
▁تحتوي	-9.75245
▁نطاق	-9.75271
▁p	-9.75273
▁בסוף	-9.75297
שי	-9.75333
▁הלאומי	-9.75347
▁قدر	-9.75419
▁וא	-9.75428
▁بن	-9.7551
▁הזדמנות	-9.75513
▁בשביל	-9.75564
▁أمريكا	-9.75585
سون	-9.75619
▁نشر	-9.75661
▁بلا	-9.75681
قول	-9.75696
▁ניו	-9.75715
▁المالية	-9.75767
▁מסוג	-9.75779
▁أريد	-9.75843
▁لذا	-9.75847
▁תמיכה	-9.75872
▁إنتاج	-9.75889
▁המדינות	-9.75943
J	-9.75978
▁الل	-9.76023
▁الأيام	-9.76049
▁للعمل	-9.76094
▁الطرق	-9.76203
▁الشمس	-9.76225
إن	-9.76246
▁قيمة	-9.76269
▁لكنه	-9.76305
▁العالمي	-9.76446
▁اتخاذ	-9.76479
▁تسجيل	-9.76533
▁يأتي	-9.76607
וי	-9.76663
▁שמו	-9.76671
▁תרופות	-9.76719
▁العلاقات	-9.76735
▁ايضا	-9.76774
▁לחשוב	-9.76784
▁البداية	-9.76797
פק	-9.76802
▁تنفيذ	-9.76822
▁הגדולה	-9.76905
▁החינוך	-9.76915
▁בכלל	-9.76916
▁להבטיח	-9.77001
▁90	-9.77014
יין	-9.77032
▁בחודש	-9.77063
▁ניתוח	-9.77074
▁הסרט	-9.77097
▁מצד	-9.77102
▁עולה	-9.77116
وني	-9.77178
לות	-9.7727
▁האוניברסיטה	-9.77316
▁החולים	-9.77341
▁التدريب	-9.77365
▁WEB	-9.77505
▁27	-9.77527
▁الحالي	-9.77543
▁بيانات	-9.77547
▁يبدأ	-9.77595
▁حالات	-9.77615
▁بإ	-9.77659
▁יורק	-9.77705
▁المناسب	-9.77722
▁החדשה	-9.77773
▁לע	-9.77811
▁בקלות	-9.77832
▁השבוע	-9.7795
▁اختبار	-9.77963
▁מקצוע	-9.78072
▁العملاء	-9.78077
اني	-9.78098
▁قادرة	-9.78107
▁عنه	-9.78131
▁القائمة	-9.78177
טה	-9.78181
▁الحدود	-9.78191
▁לעבור	-9.78197
▁بهذه	-9.7822
רד	-9.7822
▁أصبحت	-9.78252
▁ألمانيا	-9.78328
▁מק	-9.78338
▁הסיבה	-9.78401
▁فريق	-9.78451
ارة	-9.78523
صل	-9.78523
▁السلطة	-9.78568
יית	-9.78626
▁גדולים	-9.78638
▁עת	-9.78755
טור	-9.78809
▁תפקיד	-9.78845
▁ידוע	-9.78892
▁סו	-9.78905
▁الساعة	-9.78942
▁משמעותי	-9.78968
▁الفترة	-9.78996
▁ממ	-9.79115
▁لإ	-9.79142
▁הטובה	-9.79188
פס	-9.79243
▁مواقع	-9.79273
▁أننا	-9.79304
▁السيارة	-9.79305
▁سوى	-9.79358
▁الخدمات	-9.79374
▁التشغيل	-9.79385
▁לישראל	-9.79386
בת	-9.79475
▁بالتأكيد	-9.79498
▁أسبوع	-9.79553
▁الخلايا	-9.79566
▁وغيرها	-9.79589
رت	-9.79653
رق	-9.79667
▁جدًا	-9.79676
צים	-9.79751
يرة	-9.7977
▁أعرف	-9.79906
▁במסגרת	-9.79933
▁المساعدة	-9.79992
▁علاقة	-9.80008
▁ضمن	-9.80011
▁بدء	-9.80024
▁الطبية	-9.80027
▁يكفي	-9.80157
▁איפה	-9.8018
▁رسالة	-9.80322
id	-9.8034
▁الدخول	-9.80387
▁מלחמת	-9.80416
▁נושא	-9.80533
▁בגיל	-9.80561
טל	-9.80689
▁26	-9.80689
▁مصدر	-9.80693
▁المرضى	-9.80855
▁St	-9.80869
חה	-9.80876
▁המס	-9.80892
▁رائعة	-9.80899
▁שבוע	-9.80913
▁تأخذ	-9.80928
▁قسم	-9.80993
▁نسبة	-9.80993
▁לאכול	-9.81019
▁לחזור	-9.81053
▁תלמידים	-9.81089
▁لأي	-9.81117
ic	-9.81123
▁פתרון	-9.81145
▁לס	-9.81185
▁سلسلة	-9.81186
▁נא	-9.81189
▁לשימוש	-9.81193
▁اثنين	-9.813
▁المرة	-9.81316
▁تجد	-9.81337
▁تسمح	-9.81344
▁المرحلة	-9.81424
▁فرنسا	-9.8145
▁امرأة	-9.81453
▁عمليات	-9.81483
ורים	-9.8159
▁מיליארד	-9.81669
▁תודה	-9.8168
▁يصبح	-9.81705
30	-9.8177
▁سكان	-9.81776
▁העובדה	-9.81792
▁العودة	-9.81798
▁מל	-9.8181
▁שאנו	-9.81856
▁الص	-9.81912
▁לאנשים	-9.81915
▁מכך	-9.81948
▁צבע	-9.81981
▁איזה	-9.82006
▁למעלה	-9.82066
um	-9.821
to	-9.82114
▁אפשרי	-9.82118
▁בחיים	-9.82148
▁הע	-9.82188
▁ברמה	-9.82194
▁وراء	-9.8224
וש	-9.82244
ine	-9.82246
▁يحتوي	-9.82248
▁العرب	-9.82271
▁לנסות	-9.82313
▁טבעי	-9.82353
▁الوطنية	-9.82363
▁مس	-9.82373
▁for	-9.82378
▁כלפי	-9.82389
▁بلد	-9.82493
▁גורם	-9.82506
▁2000	-9.8251
▁לבדוק	-9.82561
▁סין	-9.82652
▁בינלאומיים	-9.82668
▁אפשרות	-9.82712
לח	-9.82772
▁האל	-9.82791
▁بسهولة	-9.82851
▁מכיוון	-9.82924
▁اله	-9.82939
▁تبدو	-9.82944
ؤ	-9.82951
יב	-9.8296
▁الدفاع	-9.82974
▁טובים	-9.82976
רק	-9.83082
▁أجهزة	-9.83097
▁אישה	-9.8316
▁להוסיף	-9.83192
▁طول	-9.83242
▁التفكير	-9.83287
▁يوفر	-9.83401
▁פר	-9.83414
▁האמת	-9.83422
▁وأكثر	-9.83495
را	-9.83541
▁القدم	-9.83738
▁أخذ	-9.83769
▁80	-9.83843
ta	-9.83885
▁תת	-9.83903
▁סיפור	-9.83909
▁الحل	-9.83914
قر	-9.83968
▁אינטרנט	-9.83988
▁الويب	-9.84007
▁طوال	-9.84017
▁النتائج	-9.84038
ائية	-9.84062
צר	-9.84104
▁האחרונה	-9.8414
▁מוכן	-9.84142
▁الأمور	-9.84182
▁الاقتصاد	-9.84185
U	-9.84189
▁بهم	-9.84203
▁غزة	-9.8421
ــ	-9.84258
▁كاملة	-9.84301
יפה	-9.84313
▁עלול	-9.84352
▁الفلسطيني	-9.84357
▁ارتفاع	-9.84439
فا	-9.84456
ro	-9.84484
▁جمع	-9.84518
ניות	-9.84529
▁أنني	-9.84568
جي	-9.84575
آ	-9.84587
▁נתניהו	-9.84588
▁מסוים	-9.84668
▁النهاية	-9.84693
▁סביר	-9.84758
▁אליו	-9.8476
▁النشاط	-9.84787
▁ואם	-9.84833
دة	-9.84865
▁שינויים	-9.84917
مع	-9.84919
▁طالب	-9.84931
▁الفيلم	-9.84964
▁במדינה	-9.85119
▁נקודות	-9.85179
▁נשק	-9.85181
▁מערכות	-9.85331
▁משחקים	-9.85374
▁تحصل	-9.85376
▁رو	-9.85382
▁המחשב	-9.85439
▁العربي	-9.85446
▁فحص	-9.85473
▁עיצוב	-9.85553
ניים	-9.85564
▁מבלי	-9.85615
ac	-9.8567
▁חל	-9.85673
זר	-9.85697
▁עיר	-9.85702
ינים	-9.85734
▁زيارة	-9.85736
ri	-9.85751
▁אלפי	-9.8576
▁קבוע	-9.85764
▁بنسبة	-9.8581
▁אנרגיה	-9.85814
▁بان	-9.85825
▁נוספות	-9.85846
▁عيد	-9.8591
▁الجمهور	-9.8593
12	-9.85938
▁تقول	-9.85951
▁تحميل	-9.8603
▁מומלץ	-9.86035
▁بكل	-9.86058
▁الجنس	-9.86095
▁مجلس	-9.86115
▁عنوان	-9.86119
▁للاهتمام	-9.86127
▁כתוצאה	-9.86128
▁متى	-9.86129
▁السياسية	-9.86142
▁אהבה	-9.86148
▁חזק	-9.86197
▁ירושלים	-9.862
▁המקום	-9.86294
▁رأس	-9.86318
וג	-9.8632
▁העם	-9.86335
▁לבנות	-9.86411
▁500	-9.86423
דור	-9.86494
▁ממנו	-9.86624
▁היכולת	-9.86662
▁أربعة	-9.86729
▁הצבא	-9.86831
▁אוכל	-9.86836
▁الإدارة	-9.86883
▁מבין	-9.86897
▁אמיתי	-9.86945
▁חג	-9.86989
اك	-9.87014
▁לק	-9.87138
▁فى	-9.87173
▁המלחמה	-9.87279
جل	-9.873
▁ممارسة	-9.87305
▁تستطيع	-9.87309
▁جنوب	-9.87318
▁מרגיש	-9.8734
▁جو	-9.87342
60	-9.87419
▁בסופו	-9.87442
▁صغير	-9.87486
▁الألعاب	-9.87524
▁כנראה	-9.87583
25	-9.87593
▁נשיא	-9.87624
▁המאה	-9.87629
▁בשנים	-9.87659
▁למען	-9.87722
la	-9.87738
▁אוויר	-9.87747
▁نتنياهو	-9.87813
▁وكانت	-9.8782
▁البرامج	-9.87827
▁שבהם	-9.87855
פט	-9.87875
▁أحب	-9.87885
▁أولئك	-9.87936
▁להיכנס	-9.87949
▁שאלות	-9.88002
▁טאי	-9.88014
▁חו	-9.88028
▁ספורט	-9.8806
▁الداخلية	-9.88117
▁الشباب	-9.88161
كون	-9.88201
▁חייבים	-9.88253
▁רוח	-9.88271
כנס	-9.88369
▁מציע	-9.88384
▁הראשונים	-9.88417
מא	-9.8842
▁קטנים	-9.88423
▁لجميع	-9.88458
▁70	-9.88498
▁تقع	-9.88504
▁قمت	-9.88511
▁שא	-9.88512
▁الموت	-9.88575
▁המערכת	-9.88612
▁לבד	-9.88616
▁أل	-9.88628
▁تنظيم	-9.88665
▁Skype	-9.88681
se	-9.88812
▁להישאר	-9.88818
مت	-9.88842
صور	-9.88851
▁تجعل	-9.88856
צות	-9.88879
▁تمامًا	-9.88905
▁אמריקה	-9.88961
עות	-9.89049
קת	-9.89049
▁قصة	-9.89078
▁حياتك	-9.89097
▁بحث	-9.89139
+	-9.89197
▁לפעול	-9.89214
▁שווה	-9.89235
▁فكرة	-9.89257
▁شخصية	-9.8929
▁بالطبع	-9.89322
מד	-9.89328
▁חוסר	-9.89359
▁וח	-9.89361
▁מנהל	-9.89405
▁ملاحظة	-9.89414
▁صوت	-9.89453
▁المستوى	-9.89493
דת	-9.89519
▁الفور	-9.89541
▁إعداد	-9.89548
▁מיוחד	-9.89587
▁البشر	-9.89642
▁de	-9.89672
▁פיתוח	-9.89721
▁יד	-9.89729
▁נעשה	-9.89755
▁حدود	-9.89815
▁ط	-9.8983
▁يظهر	-9.89846
-3	-9.89872
▁القوة	-9.899
יני	-9.89908
▁לוח	-9.89913
▁זוהי	-9.89935
▁חודש	-9.8996
▁המוח	-9.89967
▁בארץ	-9.90009
▁إرسال	-9.90069
كا	-9.90094
▁Co	-9.90174
▁עצמי	-9.90184
▁طفلك	-9.90189
▁خيار	-9.90191
▁קרוב	-9.90194
▁وغير	-9.90196
▁الثالث	-9.90237
لت	-9.90268
▁الهدف	-9.90291
▁العلوم	-9.90307
▁Z	-9.90336
▁סל	-9.90462
גל	-9.90557
▁הרופא	-9.90592
▁شعبية	-9.90657
▁بأنه	-9.90692
▁تر	-9.90693
▁לאפשר	-9.90702
▁29	-9.90724
▁להביא	-9.90788
حب	-9.90804
▁חדר	-9.90814
▁תקשורת	-9.90831
▁הסכם	-9.90837
▁לילדים	-9.90895
▁تعد	-9.90901
▁مدير	-9.91041
▁האחרונים	-9.91186
زا	-9.912
▁وتم	-9.91297
▁التعامل	-9.91332
▁خمسة	-9.91384
▁ברגע	-9.91417
▁קי	-9.91428
▁العسكرية	-9.91542
▁מחיר	-9.91568
▁2020	-9.91609
▁الجودة	-9.91631
40	-9.91675
▁متنوعة	-9.91688
▁תמונה	-9.91698
ge	-9.91823
▁الخارج	-9.9184
מס	-9.91918
▁הבאה	-9.91922
▁القيادة	-9.9197
كن	-9.9202
co	-9.92022
▁صديق	-9.92058
▁أعتقد	-9.92084
יט	-9.92097
קות	-9.92102
▁רשת	-9.92113
▁אישית	-9.92146
▁לשלם	-9.92186
ירות	-9.92206
▁جاء	-9.92207
▁المجال	-9.9221
▁חצי	-9.92273
▁לזה	-9.92296
▁לאחרונה	-9.9233
▁الاست	-9.9236
ينا	-9.92366
▁הט	-9.92379
▁מראש	-9.92394
▁נמצאים	-9.92406
▁המוצר	-9.92426
▁ארבע	-9.92446
▁a	-9.92535
▁حركة	-9.9254
يز	-9.92542
▁הציבור	-9.92593
▁אפשרויות	-9.92601
בית	-9.92663
زم	-9.92717
מור	-9.92725
رن	-9.92735
▁المشروع	-9.92738
سا	-9.92745
▁ישירות	-9.92927
אד	-9.92949
▁המים	-9.92976
▁مكتب	-9.92992
▁מתח	-9.93
▁اتصال	-9.93001
اث	-9.93079
וז	-9.93085
▁فلا	-9.93119
▁רי	-9.93136
▁المحكمة	-9.93188
▁السياسة	-9.93211
▁והיא	-9.93311
▁חברה	-9.93408
▁للأ	-9.93418
▁السابقة	-9.93426
▁مستويات	-9.93441
▁وبين	-9.93466
▁כשה	-9.93467
▁מקרה	-9.93494
▁كلّ	-9.93514
שר	-9.93521
▁أعضاء	-9.93534
▁عنها	-9.93564
رف	-9.93696
▁فقدان	-9.93698
▁سياسة	-9.93713
▁כאילו	-9.93725
▁معا	-9.93753
▁רואים	-9.93769
▁خلق	-9.93825
▁منتجات	-9.93841
▁وسي	-9.93867
בל	-9.93904
▁عليهم	-9.93966
):	-9.93974
▁كتب	-9.94041
ائي	-9.94043
يو	-9.94047
▁חולים	-9.94071
ורג	-9.94123
▁إطار	-9.94127
▁באותה	-9.94144
▁ות	-9.94146
▁وان	-9.9415
▁מפתח	-9.94263
▁منظمة	-9.94294
▁מספק	-9.94357
▁فهي	-9.94453
▁حماس	-9.9447
▁הקו	-9.94488
▁העור	-9.94489
▁תשלום	-9.94561
▁أر	-9.94566
-2	-9.94573
▁فهو	-9.94587
▁المس	-9.94601
▁35	-9.94608
▁التركيز	-9.94621
▁الو	-9.94625
▁שיתוף	-9.9467
▁وفقًا	-9.94671
▁לנ	-9.94711
▁אזור	-9.9473
▁שירותי	-9.94759
▁לקוחות	-9.94764
▁ימי	-9.94769
▁قوية	-9.94791
دا	-9.94818
▁هدف	-9.9484
▁بهذا	-9.9486
▁עליהם	-9.94867
▁שאלה	-9.94959
▁مدرسة	-9.94969
▁هكذا	-9.94984
رس	-9.95004
▁كمية	-9.95067
ارات	-9.95107
▁الاجتماعي	-9.95179
▁بو	-9.95196
▁שלישי	-9.95203
▁مستقبل	-9.95268
▁مرحلة	-9.95294
▁القرار	-9.95354
▁קטנה	-9.95372
▁חינם	-9.9539
▁عامًا	-9.95417
ינג	-9.95419
▁De	-9.95444
5%	-9.95445
16	-9.9546
קור	-9.95529
▁2006	-9.95553
נק	-9.95557
▁بنا	-9.9556
▁מצרים	-9.9571
▁לצאת	-9.95737
▁لكي	-9.95741
▁المواقع	-9.95755
▁أشخاص	-9.95759
نة	-9.95764
80	-9.95831
▁حب	-9.9584
▁המטרה	-9.95876
לם	-9.95999
دل	-9.96008
▁والس	-9.96013
▁מנסה	-9.96087
de	-9.96091
يًا	-9.96101
▁)	-9.96116
▁שאינם	-9.96122
▁أطفال	-9.96132
▁הקשר	-9.96232
▁ملف	-9.96271
▁לוקח	-9.96286
▁מאי	-9.96331
▁עצמה	-9.96354
אור	-9.96357
جد	-9.96401
.”	-9.96416
▁הלימודים	-9.9643
▁كثيرة	-9.96436
דים	-9.96447
▁בשוק	-9.96577
▁التواصل	-9.96656
▁جي	-9.96672
مي	-9.96675
▁ואתה	-9.96798
بد	-9.96818
▁לכתוב	-9.9683
▁حر	-9.96845
▁אומרים	-9.96861
▁כדאי	-9.96908
▁الطبيعي	-9.9698
▁מתאים	-9.97042
▁קיים	-9.97049
▁المملكة	-9.97056
▁الأم	-9.97085
دن	-9.97146
▁التأمين	-9.97148
▁תלוי	-9.97181
▁המחלה	-9.97195
▁الإعلام	-9.9723
▁בחו	-9.97258
▁פנים	-9.97271
▁الأبيض	-9.97363
▁חומר	-9.97367
▁יחסים	-9.97429
▁السيطرة	-9.9748
▁الغربية	-9.97492
▁يحصل	-9.97514
▁הפך	-9.97515
ers	-9.97559
▁להציג	-9.97574
▁אודות	-9.97577
رو	-9.97615
▁السؤال	-9.97635
▁והמ	-9.9764
▁مؤسسة	-9.97685
יקה	-9.97734
▁تع	-9.97827
▁أهم	-9.9786
15	-9.97872
▁חסר	-9.98004
▁מוקדם	-9.9803
قة	-9.98049
▁مناطق	-9.98084
▁ההיסטוריה	-9.98113
▁החלק	-9.9812
▁סוגים	-9.98123
▁זמין	-9.98141
▁יכולות	-9.98192
▁ארבעה	-9.98207
دين	-9.98248
יפו	-9.98273
▁ترك	-9.98279
▁באירופה	-9.98308
▁الكبيرة	-9.98329
▁سا	-9.98347
▁تعتبر	-9.98354
▁خطة	-9.9836
▁الجلد	-9.98415
▁ز	-9.98416
▁רופא	-9.98426
▁הצ	-9.9844
בא	-9.98445
מנו	-9.98456
▁באו	-9.98648
ate	-9.98683
▁الدعم	-9.98709
▁ערב	-9.98715
▁نيويورك	-9.9877
▁בידי	-9.98771
סו	-9.98804
▁الأوسط	-9.98815
יום	-9.98843
رى	-9.98862
▁علامة	-9.9887
▁בעתיד	-9.98885
▁الليل	-9.98952
▁يعتبر	-9.99074
אה	-9.9912
▁להעביר	-9.9913
▁רמת	-9.99162
▁שכן	-9.99175
▁צרפת	-9.9924
▁השם	-9.99272
بت	-9.99347
לס	-9.9938
▁مشاهدة	-9.99384
▁نموذج	-9.99416
▁ארוך	-9.9944
▁اللازمة	-9.99453
تس	-9.99453
שו	-9.99465
▁المشاكل	-9.99486
▁300	-9.9949
▁بيع	-9.99497
▁تذكر	-9.9956
نس	-9.99561
▁לטיפול	-9.99592
▁أسابيع	-9.99624
▁يعانون	-9.9966
راء	-9.99683
ir	-9.99692
▁תא	-9.99695
▁סט	-9.9974
פתח	-9.99753
▁תש	-9.99762
▁الضوء	-9.99789
▁לבקר	-9.99799
▁ויותר	-9.99826
▁45	-9.99874
סון	-9.99879
▁مقارنة	-9.99905
▁הנוכחי	-9.99933
▁ומו	-9.99966
▁השפעה	-9.99977
▁הפעם	-10.0004
▁الولادة	-10.0008
▁הפלסטינית	-10.0008
▁פלסטינים	-10.0022
▁تعليم	-10.0023
▁זכות	-10.0027
▁לסייע	-10.0027
בות	-10.0027
▁أشياء	-10.0029
▁لأنها	-10.0035
אים	-10.0036
▁الأخير	-10.0036
▁أرض	-10.0042
one	-10.0043
▁يقع	-10.0043
▁צעד	-10.0046
رد	-10.0049
▁ית	-10.005
▁الدواء	-10.0054
نز	-10.0056
▁במקרים	-10.0056
▁الصيف	-10.0058
▁אד	-10.0063
▁الشمالية	-10.0067
▁الكلمات	-10.0069
▁يسوع	-10.0071
▁משמעות	-10.0073
▁مرور	-10.0077
אס	-10.0083
▁الحرارة	-10.0083
!"	-10.0086
كي	-10.0089
me	-10.0091
▁الانتخابات	-10.0092
▁ترى	-10.0102
אנחנו	-10.011
▁ثانية	-10.0113
▁31	-10.0116
▁وسط	-10.0116
▁الاقتصادية	-10.0122
▁בסדר	-10.0128
ant	-10.0128
▁متر	-10.013
▁מאחורי	-10.013
▁פה	-10.0131
▁צו	-10.0135
وك	-10.0137
▁تأتي	-10.0137
▁ראה	-10.014
▁היחידה	-10.0144
▁الاستخدام	-10.0146
▁פרי	-10.0148
▁דין	-10.015
▁מדבר	-10.0154
-4	-10.0159
24	-10.0161
▁Pro	-10.0166
▁עשה	-10.0167
▁أنفسهم	-10.0172
▁يمكنني	-10.0184
جم	-10.0189
▁الحاجة	-10.0194
▁בח	-10.0203
▁الطلب	-10.0207
ter	-10.021
סט	-10.0213
▁لدي	-10.0217
▁עי	-10.0217
▁נשאר	-10.0218
▁הרכב	-10.0228
un	-10.0228
▁العائلة	-10.0236
▁הדם	-10.0237
قل	-10.0242
-20	-10.0245
קט	-10.0246
▁حكومة	-10.0247
▁الضغط	-10.0247
▁التكنولوجيا	-10.0251
كت	-10.0251
▁ببساطة	-10.0253
▁معه	-10.0263
▁הצורך	-10.0266
▁المع	-10.0269
▁להימנע	-10.0272
▁إزالة	-10.0277
ستر	-10.0283
▁העליון	-10.0285
▁نقص	-10.0285
يان	-10.0287
▁הטובים	-10.0287
▁רו	-10.0289
▁פרטים	-10.0291
روب	-10.0294
▁كرة	-10.0295
▁تدريب	-10.0298
▁المريض	-10.0298
▁تجنب	-10.0298
وث	-10.0298
▁עלינו	-10.0303
▁مايو	-10.0303
فل	-10.0305
▁משו	-10.0308
▁מאמינים	-10.0314
▁במזרח	-10.0315
▁عمر	-10.0316
פן	-10.032
▁נותן	-10.0324
▁בע	-10.0328
▁משקל	-10.0329
▁الذهاب	-10.033
▁מלחמה	-10.033
▁עניין	-10.0332
▁أربع	-10.0338
▁الصفحة	-10.034
حة	-10.0359
▁منح	-10.0362
ווי	-10.0366
▁בפעם	-10.0367
فة	-10.037
غر	-10.037
▁الماجستير	-10.0371
▁מחשב	-10.0375
18	-10.0377
▁במרכז	-10.0378
▁חמש	-10.0379
علم	-10.0379
▁בחשבון	-10.0396
▁מחקרים	-10.0399
▁בס	-10.04
▁לצד	-10.0409
סל	-10.041
▁שטח	-10.0411
قت	-10.0411
▁استخدم	-10.0413
▁לגמרי	-10.0417
▁to	-10.0419
▁اللعب	-10.0419
▁صفحة	-10.0419
▁موقف	-10.0421
▁كنا	-10.0422
▁להרגיש	-10.0422
▁البقاء	-10.0424
os	-10.0425
▁אחוז	-10.0428
▁תכונות	-10.044
▁בסוריה	-10.0446
לב	-10.0446
طف	-10.0446
▁خمس	-10.0451
מון	-10.0462
ادة	-10.0465
▁الاسم	-10.0468
▁وزير	-10.0472
מח	-10.0474
ie	-10.0474
ne	-10.0482
▁אתכם	-10.0484
▁בארצות	-10.0487
▁تحمل	-10.0489
▁לעמוד	-10.0491
▁האש	-10.0493
li	-10.0495
▁الطب	-10.0499
!!	-10.0507
▁מעולם	-10.0507
אין	-10.0512
▁שניתן	-10.0514
الي	-10.0519
▁الأدوية	-10.0523
▁הופך	-10.0524
▁וכו	-10.0525
▁سبتمبر	-10.0526
▁השלום	-10.0527
▁ث	-10.0529
▁يناير	-10.0535
▁بسيطة	-10.0538
▁University	-10.0539
▁بطاقة	-10.0539
na	-10.0542
▁בצד	-10.0544
▁نشاط	-10.0547
عود	-10.0548
▁חברי	-10.0548
עבר	-10.0551
▁עו	-10.0551
▁الخطوة	-10.0555
חים	-10.0555
▁השתמש	-10.0557
נטי	-10.0563
▁פו	-10.0565
▁إحدى	-10.0567
▁שכ	-10.0569
عت	-10.0571
▁חיפוש	-10.0571
▁במערכת	-10.0584
▁لتحقيق	-10.0586
▁הארגון	-10.0591
▁שאר	-10.0593
رج	-10.0596
▁استخدامها	-10.0602
▁الألم	-10.061
▁الموسيقى	-10.0615
▁الدفع	-10.0617
▁נמוך	-10.0617
יזם	-10.062
▁للأطفال	-10.0621
▁قطع	-10.0623
▁فصل	-10.0627
▁לאתר	-10.0627
▁קבוצה	-10.0629
▁לשם	-10.0629
▁أقول	-10.0635
▁גרמניה	-10.0638
▁رغم	-10.0639
▁עבר	-10.0639
▁האמריקאי	-10.064
▁קוד	-10.0641
▁שעה	-10.0648
▁אוטומטי	-10.065
▁גדל	-10.0651
▁الملك	-10.0652
ut	-10.0656
▁فرص	-10.0656
▁Me	-10.0659
▁الصحيح	-10.066
▁VPN	-10.0663
▁מוצר	-10.0667
▁قاعدة	-10.0672
▁وحدة	-10.0673
ent	-10.0674
▁غضون	-10.0681
▁لندن	-10.0683
▁قليلا	-10.0686
כול	-10.0686
▁موجود	-10.0686
▁جودة	-10.0687
▁طبيب	-10.0692
▁נו	-10.0692
▁לוודא	-10.0693
▁מדעי	-10.0698
▁واضح	-10.0699
▁אזרחים	-10.0699
▁شيئا	-10.0704
▁الموجودة	-10.0705
▁גל	-10.0707
בן	-10.0716
ch	-10.0716
▁سوق	-10.072
▁رائع	-10.0728
▁المركز	-10.0743
▁يحب	-10.0743
بن	-10.0746
▁تتم	-10.0752
נד	-10.0752
▁العرض	-10.0752
70	-10.0754
▁الأمراض	-10.0756
▁وصف	-10.0759
▁والإ	-10.0763
op	-10.0764
כר	-10.0769
▁לקבלת	-10.0769
▁مليار	-10.0773
▁למשך	-10.0775
▁هيئة	-10.0776
▁وقالت	-10.0778
▁تسبب	-10.0779
فاء	-10.0781
رب	-10.0783
עו	-10.0784
▁يزيد	-10.0787
▁آلاف	-10.0794
▁شركات	-10.0794
▁בחדר	-10.0799
-10	-10.0799
▁בראש	-10.0803
▁اتفاق	-10.0804
ימו	-10.0804
▁بدلا	-10.0808
▁كثيرا	-10.081
▁בחלק	-10.0811
▁!	-10.0824
▁يشعر	-10.0825
يوم	-10.0826
▁مش	-10.0832
▁حزب	-10.0833
سر	-10.0837
▁أصل	-10.0839
▁שינה	-10.0839
▁הבינלאומית	-10.0841
▁גורמים	-10.0842
▁قصيرة	-10.0844
▁يد	-10.085
▁بأي	-10.0851
▁مجتمع	-10.0851
רש	-10.0853
מנים	-10.0858
sh	-10.0859
▁رحلة	-10.0863
▁الحالية	-10.0864
נוס	-10.0866
شكل	-10.0867
▁تعزيز	-10.0867
▁חד	-10.087
▁כרטיס	-10.0874
▁المُ	-10.0876
▁الز	-10.0877
▁רמות	-10.0878
▁הערבי	-10.0879
قو	-10.0879
90	-10.0886
▁מראה	-10.089
▁2005	-10.0892
▁עולם	-10.0895
▁تقرير	-10.0897
▁المست	-10.0903
▁السكري	-10.0903
▁الأجهزة	-10.0904
▁عقد	-10.0909
اخ	-10.0913
▁קבלת	-10.0915
▁הידע	-10.0915
▁ומת	-10.0919
מצ	-10.0922
▁הפנים	-10.0924
▁מיני	-10.093
▁לפתוח	-10.0935
▁עומד	-10.0951
ul	-10.0953
▁القطاع	-10.0957
▁לקבוע	-10.0967
▁צבא	-10.0967
▁במשקל	-10.097
ָ	-10.097
▁לציין	-10.0971
בש	-10.0971
▁ولن	-10.0971
▁العالي	-10.0977
اي	-10.0983
▁ושל	-10.0985
▁تركيا	-10.0997
غا	-10.0998
▁خطوة	-10.1007
رض	-10.1009
رك	-10.1009
▁اللون	-10.102
▁حاول	-10.102
▁עדיף	-10.1023
▁365	-10.1027
▁עשרות	-10.1031
▁השירות	-10.1033
▁يعيش	-10.1036
גור	-10.1039
ציה	-10.1042
سن	-10.1043
ולי	-10.1045
אלי	-10.1047
ولة	-10.1049
בקש	-10.105
▁חמאס	-10.1053
بط	-10.1054
▁السكر	-10.1058
שור	-10.1061
▁وجدت	-10.1065
▁المر	-10.1066
حم	-10.1069
▁أكتوبر	-10.1073
▁היחסים	-10.1084
▁צעירים	-10.1089
▁٪	-10.1089
اقة	-10.1093
▁المجموعة	-10.1095
▁העולמי	-10.1095
▁הפלסטיני	-10.1095
▁الحديثة	-10.1096
▁الميلاد	-10.1097
▁سو	-10.1099
▁סוריה	-10.1101
تا	-10.1102
▁المهارات	-10.1105
▁متعددة	-10.1106
▁מחלות	-10.1107
▁קבוצת	-10.1109
▁طبيعي	-10.1113
▁وظيفة	-10.1116
▁الفضاء	-10.1117
▁قليل	-10.1118
>	-10.1124
▁יוצא	-10.1127
▁לטפל	-10.113
▁ابن	-10.1138
▁حقيقي	-10.1145
▁الإطلاق	-10.1147
▁الفرصة	-10.1149
▁הפ	-10.1149
▁מב	-10.1153
▁القانونية	-10.1155
داء	-10.1156
▁الدماغ	-10.1162
▁الوزراء	-10.1162
▁الجامعات	-10.1164
▁קול	-10.1168
נן	-10.1169
▁[...]	-10.1171
▁דואר	-10.1172
▁פרטי	-10.1178
▁בעזרת	-10.118
17	-10.1188
جاب	-10.1194
▁مطار	-10.1196
טים	-10.1197
▁رجال	-10.1199
▁يونيو	-10.1203
▁האזור	-10.1205
▁פרס	-10.1206
▁יהודים	-10.1209
ion	-10.1217
בול	-10.1223
▁נש	-10.1224
▁نعرف	-10.1224
▁הדו	-10.1233
▁وست	-10.1237
▁קרא	-10.1238
▁النفس	-10.1241
▁عضو	-10.1241
▁האפשרות	-10.1241
▁المستخدمين	-10.1246
نى	-10.1247
man	-10.1248
▁גודל	-10.125
▁وهذه	-10.125
شي	-10.1253
▁المستخدم	-10.1254
▁بد	-10.1254
▁סיבה	-10.1257
▁الغرفة	-10.1266
-6	-10.127
▁ستة	-10.1272
▁كانون	-10.1276
▁השאלה	-10.1277
גה	-10.1282
ارت	-10.1285
זו	-10.1286
קול	-10.1286
▁הגנה	-10.129
▁דה	-10.1295
قال	-10.1298
▁بدلاً	-10.13
▁القادمة	-10.1301
▁مساحة	-10.1302
▁الغذائية	-10.1302
▁אוהבים	-10.1304
▁أبو	-10.1305
▁תשומת	-10.1305
▁مجالات	-10.1309
▁נקרא	-10.1311
▁ماجستير	-10.1314
▁استعداد	-10.1317
*	-10.1321
▁הטבע	-10.1322
▁يوليو	-10.1325
▁سعر	-10.1329
▁السياسي	-10.133
▁יצירת	-10.1335
▁תה	-10.1337
▁والع	-10.1337
▁עבד	-10.1337
▁ضغط	-10.1337
עמ	-10.1339
▁לראשונה	-10.1344
▁الدراسية	-10.1348
اتهم	-10.1348
▁בספטמבר	-10.1353
▁האיחוד	-10.1353
▁الط	-10.1359
▁عامة	-10.1361
▁הצדדים	-10.1367
▁בואו	-10.1368
دفع	-10.1373
▁הדין	-10.1378
▁وقف	-10.1381
▁بالت	-10.1382
▁אישור	-10.1383
פול	-10.1385
▁الأكاديمية	-10.1391
▁לשלוח	-10.1392
▁مست	-10.1396
▁הסיפור	-10.1399
▁إصدار	-10.1404
▁סרט	-10.1404
▁التدريس	-10.1405
חי	-10.1408
▁תקופה	-10.1411
▁התמונה	-10.1411
▁להפסיק	-10.1418
عا	-10.1424
إ	-10.1424
▁מקבלים	-10.1425
קר	-10.1425
▁במאי	-10.1426
▁ביצוע	-10.1429
▁חול	-10.1429
▁قلب	-10.1432
▁حصل	-10.1436
▁קרה	-10.1437
تد	-10.1437
▁חומרים	-10.1444
▁מסר	-10.1448
▁שלב	-10.145
كان	-10.145
▁تطور	-10.1452
▁قوات	-10.1452
وة	-10.1454
▁لأول	-10.1457
▁تثبيت	-10.1458
▁לחפש	-10.1461
▁גו	-10.147
▁إمكانية	-10.1472
▁لست	-10.1472
אז	-10.1476
▁בינלאומי	-10.1477
▁ولاية	-10.1478
▁التعلم	-10.1479
▁הנכון	-10.1481
▁تو	-10.1481
▁וכי	-10.1481
▁شك	-10.1484
▁כולו	-10.1484
طل	-10.1485
▁المش	-10.1491
עי	-10.1492
▁الشر	-10.1493
▁قراءة	-10.1496
▁النمو	-10.15
▁לרכוש	-10.1505
הצג	-10.1511
▁אנגלית	-10.1514
ياء	-10.1516
▁سير	-10.1516
▁العين	-10.1517
▁אסור	-10.152
ظهر	-10.1522
▁الرعاية	-10.1522
▁رفع	-10.1529
▁سؤال	-10.1534
▁ـ	-10.1536
▁פעולות	-10.1539
اه	-10.1541
▁בחינם	-10.1542
يع	-10.1544
▁يتطلب	-10.1546
▁לג	-10.1546
دت	-10.1549
▁الخريطة	-10.155
▁וכ	-10.1551
▁المدن	-10.1552
▁مد	-10.1557
شر	-10.1559
▁שהיו	-10.1559
▁السهل	-10.156
▁وخاصة	-10.1563
▁مارس	-10.1566
▁גוף	-10.157
بين	-10.157
▁לבן	-10.157
▁חוקי	-10.1571
▁גרם	-10.1571
▁הזדמנויות	-10.1572
بال	-10.1585
▁לעבודה	-10.1587
ּ	-10.1589
▁مثيرة	-10.1589
▁בנוגע	-10.1592
ضي	-10.1597
ma	-10.1605
▁تحب	-10.1605
▁كلمات	-10.1606
ّر	-10.1609
▁السلطات	-10.1615
حق	-10.1615
▁الخبرة	-10.1616
▁תרבות	-10.1623
▁השלישי	-10.1624
▁الروسية	-10.1634
▁شي	-10.1634
▁جيدا	-10.1639
▁אותן	-10.1642
▁ביטחון	-10.1643
▁מהיר	-10.1644
▁الأوروبية	-10.1645
עוד	-10.1646
מית	-10.1653
▁לאומי	-10.1654
▁נת	-10.1654
מוש	-10.1659
▁התכנית	-10.1659
▁כתובת	-10.166
▁לזהות	-10.166
صر	-10.1663
ران	-10.1665
▁32	-10.1667
▁השמש	-10.1667
ארי	-10.167
im	-10.1671
▁أولاً	-10.1672
▁البلدان	-10.1676
▁تشير	-10.1679
▁وإن	-10.168
رون	-10.1681
▁المتعلقة	-10.1681
תר	-10.1683
واصل	-10.1683
עבור	-10.1684
▁h	-10.1685
▁לשעבר	-10.1688
▁מא	-10.1694
▁רפואי	-10.1698
▁Le	-10.1701
ומים	-10.1709
▁אמנות	-10.1711
▁المشاركة	-10.1712
▁ורק	-10.1712
▁تشمل	-10.1724
אפשר	-10.1725
أنا	-10.1728
▁موجودة	-10.1729
▁הבחירות	-10.1733
▁البحوث	-10.1735
▁ואפילו	-10.175
▁عائلة	-10.1755
per	-10.1756
זכר	-10.1758
▁המשטרה	-10.1759
▁دم	-10.176
▁זוג	-10.1762
حي	-10.1771
▁طويل	-10.1771
▁يريدون	-10.1775
▁Mar	-10.1776
▁يفعل	-10.178
▁נוח	-10.1783
▁מקומות	-10.1787
▁טו	-10.1791
▁La	-10.1791
▁للقيام	-10.1793
▁الطبيعة	-10.1795
▁ביקור	-10.1802
▁אבו	-10.1802
▁مزيد	-10.1803
▁להכיר	-10.1808
▁בפועל	-10.1814
▁التعاون	-10.1816
▁אפריקה	-10.1817
لين	-10.1817
▁ظهور	-10.1819
טון	-10.1819
▁تقييم	-10.182
▁הודעות	-10.1822
▁تحويل	-10.183
قسم	-10.1832
▁לזכור	-10.1833
قدم	-10.184
יס	-10.1842
▁الواضح	-10.1843
▁الأصلي	-10.1851
▁נזק	-10.1852
▁ליהנות	-10.1853
▁دورة	-10.1854
مل	-10.1855
▁قوي	-10.1859
▁יכולת	-10.1859
נסי	-10.1859
▁f	-10.186
▁الأموال	-10.1868
▁علامات	-10.1873
▁الدهون	-10.1874
▁Mac	-10.1875
دية	-10.1876
▁يعتقد	-10.1882
▁כזו	-10.1885
▁لمعرفة	-10.1888
▁خطأ	-10.189
ונית	-10.1891
ادي	-10.1894
▁נע	-10.1897
▁نجاح	-10.1899
▁לפנות	-10.1901
▁אחריות	-10.1903
▁يسبب	-10.1905
▁أب	-10.1908
▁نفسي	-10.1913
▁السن	-10.1915
▁?	-10.1918
▁انا	-10.1918
▁מאמין	-10.1924
▁الأماكن	-10.1924
▁התקשורת	-10.1925
▁לתואר	-10.1926
▁עץ	-10.1927
▁الفن	-10.1928
רצ	-10.1932
جز	-10.1933
-5	-10.1936
▁להסיר	-10.1937
21	-10.1941
▁יחסי	-10.1944
▁تؤثر	-10.1945
▁الماضية	-10.1948
▁להגדיל	-10.1948
▁הטלפון	-10.1948
▁הבאות	-10.1948
ation	-10.1949
▁ألعاب	-10.195
▁מפה	-10.1952
▁لكنها	-10.1955
▁הכסף	-10.1956
دار	-10.1958
▁ضمان	-10.1958
▁وهم	-10.196
▁فيديو	-10.1964
▁سطح	-10.1971
▁מעמד	-10.1975
▁تشرين	-10.1976
כיר	-10.1978
▁تمت	-10.198
▁במספר	-10.1982
▁מסוגלים	-10.1984
▁ואי	-10.1986
▁בבוקר	-10.1989
▁מרכזי	-10.1992
▁قطاع	-10.1993
▁واسع	-10.1995
ot	-10.1995
▁בתחילת	-10.1996
▁קרי	-10.1998
▁פעיל	-10.2001
▁הוסיף	-10.2002
▁מאד	-10.2002
13	-10.2004
▁اكتشاف	-10.2004
▁واضحة	-10.2004
▁חמישה	-10.2014
▁Y	-10.2017
▁المادة	-10.2018
Z	-10.2022
צב	-10.2022
▁האור	-10.2023
▁טי	-10.2026
▁התנהגות	-10.2032
רצו	-10.2035
▁תחילת	-10.2042
▁קבוצות	-10.2045
14	-10.205
▁בינואר	-10.2051
▁الث	-10.2051
▁الشعور	-10.2057
▁רגע	-10.2059
▁ירוק	-10.2062
▁מט	-10.2064
mo	-10.2064
▁לצפות	-10.2065
▁מקצועי	-10.2066
▁ديسمبر	-10.2068
▁לבקש	-10.2071
עם	-10.2071
▁Al	-10.2074
▁معنى	-10.2076
▁קיבל	-10.2087
▁שוק	-10.2088
ياً	-10.2092
▁שיי	-10.2094
▁العلاقة	-10.2095
▁نظرة	-10.2095
and	-10.2096
▁يعود	-10.2098
▁שיכול	-10.2099
▁נחשב	-10.21
▁להציע	-10.21
▁جنب	-10.2101
▁באי	-10.2107
▁أولا	-10.211
▁רגיל	-10.2113
▁פרו	-10.2118
▁שיער	-10.2118
▁الأحمر	-10.2123
▁הערה	-10.2126
▁الجنود	-10.2128
▁شهادة	-10.213
نو	-10.2131
▁دخول	-10.2132
▁أسرع	-10.2134
قام	-10.2134
▁לצורך	-10.2137
ילי	-10.2138
בור	-10.214
▁جميلة	-10.2141
▁תוכן	-10.2143
▁أبدا	-10.2148
▁مو	-10.215
ימות	-10.215
▁תנאי	-10.2154
▁الكر	-10.2154
تو	-10.2157
▁תושבי	-10.2162
▁מדברים	-10.2163
▁ظهر	-10.2168
▁معين	-10.2168
▁كلا	-10.217
▁وسيلة	-10.2173
▁التحكم	-10.2174
▁לתלמידים	-10.2183
▁עשויה	-10.2185
▁יוכלו	-10.2188
ומי	-10.2193
▁שכר	-10.2195
▁במידה	-10.2197
pe	-10.2197
▁للإ	-10.2197
▁الأسرة	-10.2197
▁يعتمد	-10.2198
▁الصباح	-10.2199
גנים	-10.2199
▁الأحداث	-10.2201
▁يست	-10.2204
▁عشرة	-10.2206
▁اخرى	-10.2206
▁הפעולה	-10.2211
ביל	-10.2213
▁150	-10.2216
▁التغيير	-10.2217
▁העיקרי	-10.2218
▁כאב	-10.2222
▁הישראלית	-10.2226
▁الصلة	-10.223
▁وصول	-10.2232
▁דעת	-10.2232
صف	-10.2235
▁الأراضي	-10.2241
▁מזל	-10.2244
▁במשחק	-10.225
كو	-10.2251
▁الشخصي	-10.2255
▁שמח	-10.2257
▁תקופת	-10.2259
ורד	-10.226
▁מלון	-10.2263
▁الخيار	-10.2265
دير	-10.2265
▁ذكر	-10.2268
▁לעיתים	-10.2269
▁מבחינה	-10.2269
▁نرى	-10.227
▁النقل	-10.2272
▁الأمم	-10.2274
▁نوفمبر	-10.2276
▁وعندما	-10.2276
راد	-10.2281
▁تل	-10.2287
▁--	-10.2288
▁סוגי	-10.2289
▁العمليات	-10.2289
▁حياته	-10.2291
▁الهند	-10.2294
▁לרוב	-10.23
▁בשימוש	-10.2301
▁الد	-10.2302
▁עזרה	-10.2308
▁القوات	-10.2311
▁בריא	-10.2314
▁ראו	-10.2315
▁חיילים	-10.2315
انية	-10.2316
تُ	-10.2319
▁الاتفاق	-10.2323
▁מוכנים	-10.2324
▁كن	-10.2328
no	-10.2328
▁התרבות	-10.233
▁انت	-10.2335
▁בשטח	-10.2335
▁לדברי	-10.2338
▁تتطلب	-10.234
▁מילים	-10.2341
ריס	-10.2342
▁הביתה	-10.2351
قد	-10.2356
▁الطيران	-10.2356
▁أفراد	-10.2357
אק	-10.2358
▁ولد	-10.2362
▁הנושא	-10.2364
▁التصميم	-10.237
▁בתור	-10.2381
با	-10.2382
▁אמרו	-10.2387
بك	-10.2387
▁باستمرار	-10.2387
▁ביולי	-10.2389
לין	-10.2389
▁لما	-10.2402
פעל	-10.2403
▁حكم	-10.2404
▁كا	-10.2406
▁تغير	-10.2407
▁الكبير	-10.2412
▁بالقرب	-10.2414
يته	-10.2419
מצא	-10.242
▁الحركة	-10.2424
▁שליטה	-10.243
▁الملفات	-10.243
جو	-10.2431
▁البر	-10.2431
▁والا	-10.2432
▁מומחים	-10.2433
اغ	-10.2434
▁النجاح	-10.2438
שוב	-10.2438
אנו	-10.2438
حسن	-10.244
▁باريس	-10.2441
▁ولذلك	-10.2444
▁مناسب	-10.2444
▁לנהל	-10.2445
▁חושבים	-10.2446
▁הסביבה	-10.245
”،	-10.2452
▁מציעים	-10.2454
▁بالكامل	-10.2454
▁ويجب	-10.2464
▁الحكم	-10.2468
▁התוצאות	-10.2473
▁الجو	-10.2478
يش	-10.2479
▁הודעה	-10.2479
סר	-10.248
▁المدى	-10.2481
▁2004	-10.2483
▁השר	-10.2483
▁المتوسط	-10.2484
▁עשר	-10.2495
▁والد	-10.2497
▁وكيف	-10.2497
ספר	-10.2497
▁לגלות	-10.2499
לל	-10.25
▁צד	-10.25
▁ביוני	-10.2504
▁יקר	-10.2505
▁آ	-10.2505
▁הכול	-10.2509
▁פור	-10.2516
▁צי	-10.2518
اض	-10.2518
▁رفض	-10.2518
▁البناء	-10.2521
▁الوحيدة	-10.2522
شار	-10.2523
all	-10.2524
اة	-10.2524
▁לימוד	-10.2525
▁أسباب	-10.2527
▁قادر	-10.2529
▁أهداف	-10.253
▁معدل	-10.253
▁تؤدي	-10.2535
▁העתיד	-10.2536
▁עור	-10.2539
ّد	-10.254
▁تبحث	-10.2547
▁עקב	-10.2549
▁עוזר	-10.2556
▁أت	-10.2557
ga	-10.2562
▁בריטניה	-10.2563
▁المستشفى	-10.2564
▁למדי	-10.2565
▁الفرنسية	-10.2568
▁آخرين	-10.2569
▁נושאים	-10.257
▁שמע	-10.2574
بعد	-10.2574
▁נכנס	-10.2574
▁البلد	-10.2575
▁المدارس	-10.2577
▁אילו	-10.2578
▁מצא	-10.2582
ِّ	-10.2584
ورة	-10.2587
▁الظروف	-10.2587
▁اليهودي	-10.2588
صاب	-10.2589
▁נולד	-10.2591
▁מתו	-10.2593
▁اليومية	-10.2595
ti	-10.2597
▁לפתור	-10.2597
▁الأن	-10.2599
▁يبلغ	-10.26
▁ظل	-10.2602
▁המר	-10.2607
▁شريك	-10.2608
▁אמרה	-10.2611
▁באוקטובר	-10.2617
▁علاقات	-10.2617
▁בשר	-10.2618
▁الشكل	-10.262
▁משמש	-10.262
▁تحليل	-10.2621
▁عديدة	-10.2622
▁Mo	-10.2623
▁במדינות	-10.2625
▁يأخذ	-10.2625
ודה	-10.2627
▁העסק	-10.2629
▁أُ	-10.2637
▁c	-10.2637
▁m	-10.2639
▁أداء	-10.2645
▁פועל	-10.2645
▁החלטות	-10.2649
▁الاقتصادي	-10.2651
▁المؤسسات	-10.2653
▁بموجب	-10.2653
▁נהדר	-10.2657
▁قيد	-10.2658
▁ويتم	-10.2662
▁ומתן	-10.2664
▁لعب	-10.2666
▁الخط	-10.2668
אתה	-10.2669
▁السرطان	-10.2671
بير	-10.2674
▁בעבודה	-10.2674
▁نمو	-10.2677
▁حقيقية	-10.2681
▁החוץ	-10.2681
▁גדולות	-10.2689
▁الحقيقية	-10.2692
▁صحة	-10.2692
▁ממה	-10.2693
فن	-10.2694
رم	-10.2702
-18	-10.2703
▁محددة	-10.2707
▁العمال	-10.2708
▁סיוע	-10.271
ירו	-10.2713
▁צעיר	-10.2713
فو	-10.2714
est	-10.2715
▁وهكذا	-10.2715
דרג	-10.2716
מונים	-10.2717
▁רחוק	-10.272
▁لجنة	-10.2721
▁التحقيق	-10.2721
▁מעניין	-10.2722
ca	-10.2722
זמן	-10.2722
▁صناعة	-10.2725
▁למקום	-10.273
▁الكتب	-10.2735
▁לספר	-10.2736
BS	-10.2737
▁التسجيل	-10.2742
حفظ	-10.2743
▁نقاط	-10.2747
روح	-10.2748
قارب	-10.2756
▁נמוכה	-10.2761
ברי	-10.2764
▁لغة	-10.2768
▁الشبكة	-10.2769
▁البيئة	-10.2769
▁שבע	-10.2777
▁מבט	-10.2778
▁ولكنه	-10.2782
יבי	-10.2783
▁בערך	-10.2784
מם	-10.2786
500	-10.2788
▁מין	-10.2789
▁חברתית	-10.2789
ביע	-10.2792
شا	-10.2792
▁2003	-10.2795
▁أماكن	-10.2796
צג	-10.2797
ثر	-10.2797
▁إنهم	-10.2799
▁لاحق	-10.2802
▁האמיתי	-10.2802
▁اكثر	-10.2803
▁48	-10.2809
▁حدوث	-10.2811
▁أغسطس	-10.2812
يح	-10.2814
ינת	-10.2815
▁במחקר	-10.2816
קד	-10.2817
וו	-10.2818
▁אמא	-10.2822
▁العنف	-10.2822
▁היהודי	-10.2823
ונ	-10.2828
إذا	-10.2831
▁لوحة	-10.2833
ry	-10.2837
▁לדבריו	-10.2842
ضة	-10.2845
▁כמ	-10.285
شف	-10.2851
▁היהודים	-10.2851
אב	-10.2851
▁الطبي	-10.2852
כנים	-10.2852
▁הקהילה	-10.2857
غو	-10.2861
▁دليل	-10.2861
▁בגוף	-10.2862
▁صنع	-10.2867
▁שיהיה	-10.2871
▁להפחית	-10.2872
▁מיומנויות	-10.2873
▁منتصف	-10.2874
▁Ma	-10.2876
فريق	-10.2877
وح	-10.2878
▁تأكد	-10.288
▁متوسط	-10.2881
▁الأسنان	-10.2885
▁מטרות	-10.2896
▁الغاز	-10.2897
▁نقدم	-10.2897
غير	-10.2897
▁مدار	-10.2897
▁פופולרי	-10.2898
▁סרטן	-10.2902
▁الخصوصية	-10.2902
▁מעשי	-10.2902
▁להוביל	-10.2907
טע	-10.2907
▁המי	-10.2909
عاد	-10.2909
طور	-10.2911
▁מזו	-10.2912
▁بيئة	-10.2914
ורי	-10.2918
ph	-10.292
▁לחוק	-10.2921
▁طلاب	-10.2923
▁האנרגיה	-10.2924
ريح	-10.2925
▁الوجه	-10.2927
▁דרום	-10.2928
פע	-10.2929
▁شيكل	-10.2929
▁حياتهم	-10.2932
▁פול	-10.2934
لل	-10.2935
▁שק	-10.2937
▁בד	-10.294
▁الملابس	-10.2955
▁دو	-10.2956
دع	-10.2957
▁انقر	-10.2958
▁שיטות	-10.2959
▁القول	-10.2961
▁לחקור	-10.2962
▁المهمة	-10.2963
▁הפעילות	-10.2967
▁منتج	-10.2967
▁الاعتبار	-10.2968
▁איתו	-10.2972
سبب	-10.2973
רוב	-10.2974
▁يؤثر	-10.2976
SA	-10.2977
▁ملايين	-10.2983
▁עתיד	-10.2984
▁ליום	-10.2985
▁מאו	-10.2986
01	-10.2987
نغ	-10.2987
ولي	-10.2989
שם	-10.2992
از	-10.2993
▁בוקר	-10.2995
▁تشكيل	-10.2995
▁מהו	-10.2996
▁וע	-10.2997
ment	-10.2999
▁باللغة	-10.2999
ce	-10.3
עש	-10.3002
▁اللجنة	-10.3003
سل	-10.3007
▁ואנחנו	-10.301
▁בק	-10.301
ni	-10.3016
▁تشكل	-10.3019
لام	-10.3019
▁עסק	-10.302
▁הלילה	-10.3027
▁במחשב	-10.3028
22	-10.3028
▁ספרים	-10.3031
▁سان	-10.3032
▁השוק	-10.3033
▁OneDrive	-10.3035
▁التغييرات	-10.3041
▁המלך	-10.3041
▁לד	-10.3041
▁שמש	-10.3043
▁תאים	-10.3044
▁שאינו	-10.3045
צת	-10.3046
▁الأب	-10.3049
▁אכן	-10.305
-7	-10.3051
▁تجاه	-10.3053
הו	-10.3053
▁الثلاثة	-10.3054
▁שחור	-10.3057
▁גבר	-10.3063
▁מבוסס	-10.3063
▁המוצרים	-10.3064
▁الحظ	-10.3064
▁وك	-10.3065
▁התפתחות	-10.3066
▁מציעה	-10.3068
ראה	-10.3068
ايا	-10.3068
▁مجموعات	-10.3071
▁הסיכון	-10.3072
▁بالضبط	-10.3075
▁באנגלית	-10.3076
▁الحقوق	-10.3077
ביר	-10.3077
99	-10.3083
▁Ch	-10.3084
ירים	-10.3084
▁ראשי	-10.3085
▁الأسئلة	-10.3086
ائل	-10.3087
▁כולנו	-10.3089
▁האישי	-10.309
▁الرياضية	-10.3102
em	-10.3103
▁חזרה	-10.3104
▁מסוימת	-10.3105
Q	-10.3105
▁והן	-10.3108
▁חוזר	-10.3112
-30	-10.3113
רח	-10.3114
▁مئات	-10.3116
▁ואף	-10.3119
▁مصادر	-10.3119
سو	-10.3121
▁מקווה	-10.3122
▁סיבות	-10.3126
▁יעיל	-10.3129
▁ראשית	-10.3129
▁ביטוח	-10.3133
▁أحدث	-10.3133
▁ري	-10.3135
דג	-10.3135
▁الجنسية	-10.3141
▁לאור	-10.3142
▁באיכות	-10.3143
▁الكبرى	-10.3145
▁الدكتور	-10.3145
-15	-10.3147
▁שמת	-10.3147
▁العسكري	-10.3151
▁שהת	-10.3151
▁نريد	-10.3151
▁مناسبة	-10.3153
▁لاعب	-10.3153
▁أبريل	-10.3155
▁המרכז	-10.3158
▁סוכרת	-10.3162
رز	-10.3162
▁עליה	-10.3162
▁לאדם	-10.3165
▁המפתח	-10.3165
▁قلت	-10.3166
تل	-10.3169
om	-10.3173
روس	-10.3177
▁لحظة	-10.3178
▁שמות	-10.3184
▁בשני	-10.3186
▁مسار	-10.3189
ظل	-10.3191
▁הלא	-10.3193
▁صعوبة	-10.3198
סד	-10.3199
▁كون	-10.3201
▁والعمل	-10.3202
▁الإن	-10.3205
▁רחבי	-10.3209
رش	-10.3216
▁באפשרותך	-10.3221
▁الإعلان	-10.3225
▁إيطاليا	-10.3225
▁עמוק	-10.3226
▁שילוב	-10.3228
▁ההזדמנות	-10.3229
▁تعرض	-10.323
▁הלאומית	-10.3232
▁حرارة	-10.3239
هام	-10.324
طار	-10.3241
▁לסטודנטים	-10.3242
▁ומי	-10.3244
▁بفضل	-10.3244
▁טרור	-10.3244
▁דורש	-10.3249
▁חזקה	-10.3249
▁يلي	-10.3251
▁לקראת	-10.3254
▁לנצח	-10.3254
لك	-10.3256
▁בחברה	-10.3258
כנות	-10.3261
48	-10.3262
▁השפה	-10.3263
▁מעלות	-10.3263
▁ייצור	-10.3267
▁בדצמבר	-10.3268
▁החיפוש	-10.3269
بدأ	-10.3271
▁מכיל	-10.3276
▁הזכות	-10.3276
▁تواجه	-10.328
▁محطة	-10.3285
▁أفكار	-10.329
▁الي	-10.3293
▁הרוח	-10.3294
مو	-10.3296
▁התרופה	-10.3296
رحل	-10.3298
▁קפה	-10.3299
عقد	-10.3301
▁המחיר	-10.3305
▁הקר	-10.3309
تون	-10.3309
▁בירושלים	-10.3313
לט	-10.3316
▁يوما	-10.332
▁פרסום	-10.3323
▁דף	-10.3324
▁الصوت	-10.3326
▁טר	-10.333
▁يستحق	-10.3331
חוק	-10.3333
▁شمال	-10.3334
▁פרק	-10.3334
▁בימים	-10.3335
▁תוכנה	-10.3336
▁تش	-10.3336
▁הרעיון	-10.334
▁أمريكي	-10.3342
▁كافة	-10.3344
פצ	-10.3345
▁ביקורת	-10.3346
▁كتابة	-10.335
▁عامل	-10.335
▁חופש	-10.3355
io	-10.3357
ميل	-10.3363
▁عبارة	-10.3366
قص	-10.3367
▁להשפיע	-10.3368
جن	-10.3368
خط	-10.337
زل	-10.3371
سف	-10.3376
جار	-10.338
▁سيارات	-10.3383
▁أح	-10.3383
▁החלטה	-10.3383
-12	-10.3384
מתי	-10.3387
▁נס	-10.3391
الت	-10.3393
▁להגיד	-10.3393
▁פתוח	-10.3394
בטח	-10.3394
شعر	-10.3395
▁בנובמבר	-10.3397
ha	-10.3399
▁الراحة	-10.34
▁שיעור	-10.3403
▁ولكنها	-10.3408
▁اللحظة	-10.3409
▁يعطي	-10.3411
▁הגדולים	-10.3414
▁را	-10.3415
قض	-10.3415
تش	-10.3418
▁בדיקות	-10.3419
▁חת	-10.3422
▁400	-10.3423
▁الدورة	-10.3423
▁מהי	-10.3425
▁ظروف	-10.3425
▁حان	-10.3428
طلب	-10.3429
▁سريع	-10.343
▁בהן	-10.3432
▁לילה	-10.3434
▁הים	-10.3435
▁أجزاء	-10.3435
وات	-10.3438
▁הכוח	-10.3439
▁وس	-10.3442
▁סיכוי	-10.3445
نظر	-10.3446
אדם	-10.3447
▁التفاصيل	-10.3447
وري	-10.3449
خذ	-10.3457
▁العامل	-10.3457
▁שומן	-10.3459
3%	-10.3466
▁בנו	-10.3472
▁اس	-10.3473
עיר	-10.3474
▁ברוב	-10.3475
▁הקשורים	-10.3478
▁היתרונות	-10.3479
▁يقل	-10.3484
ינ	-10.3486
ويل	-10.3486
▁מיוחדים	-10.3493
▁مق	-10.3494
זרים	-10.3497
בלה	-10.3497
▁انخفاض	-10.35
يج	-10.3501
ريد	-10.3506
▁ממוקם	-10.3507
▁لجعل	-10.3508
▁מחר	-10.3508
רון	-10.3508
מקד	-10.3509
▁אנא	-10.3511
▁الشتاء	-10.3511
▁להשלים	-10.3514
בד	-10.3515
▁إما	-10.3516
▁الأساسي	-10.3518
▁الثالثة	-10.3518
▁ميل	-10.352
▁סעיף	-10.352
▁הריון	-10.352
▁كال	-10.3521
סוף	-10.3528
▁פרויקט	-10.353
45	-10.3531
سور	-10.3539
▁ضوء	-10.354
רג	-10.3545
▁يرجى	-10.3546
ig	-10.3546
▁تعيين	-10.3552
▁الخروج	-10.3553
▁מאחר	-10.3555
خص	-10.3557
▁המשתמש	-10.3557
▁الكامل	-10.3558
▁المحتوى	-10.3561
▁الديمقراطية	-10.3561
▁ولل	-10.3563
▁בלילה	-10.3567
يكا	-10.3567
▁שפה	-10.3568
صار	-10.3568
▁צפוי	-10.3569
▁חוץ	-10.3569
ירת	-10.3581
▁التلفزيون	-10.3583
▁عصر	-10.3584
▁השטח	-10.3585
▁والح	-10.3588
▁האיש	-10.3589
▁بس	-10.3591
▁رمز	-10.3599
▁المكتب	-10.3599
▁سلاح	-10.3601
طر	-10.3601
بان	-10.3613
▁ذوي	-10.3616
▁יקרה	-10.3619
▁المشي	-10.3621
▁שעבר	-10.3624
▁אמצעי	-10.3625
age	-10.3628
▁المل	-10.3631
ian	-10.3632
▁فضلا	-10.3637
▁الإنتاج	-10.3637
▁بصورة	-10.364
▁الائتمان	-10.365
▁המשימה	-10.3653
▁تعيش	-10.3654
ay	-10.3659
▁حاليا	-10.3659
▁حصلت	-10.366
ton	-10.3663
▁IP	-10.3666
יץ	-10.3666
▁החלו	-10.3666
دور	-10.3666
ab	-10.3667
▁قالت	-10.3669
לית	-10.367
▁الأسباب	-10.3673
ملك	-10.3674
▁חלב	-10.3675
“	-10.3676
▁לייצר	-10.3678
قيم	-10.3679
▁النفط	-10.368
▁הלקוחות	-10.3681
פנה	-10.3682
▁التقنية	-10.3682
خبر	-10.3682
▁التعبير	-10.3685
▁באפריל	-10.3686
▁להכין	-10.3688
▁الأكبر	-10.3689
▁מחלה	-10.3689
ll	-10.369
▁הגיעו	-10.369
▁كله	-10.3692
הר	-10.3693
▁סא	-10.3693
عرف	-10.3694
وى	-10.3695
▁كافية	-10.3696
▁הב	-10.3697
▁הכפר	-10.3698
▁שיפור	-10.3699
▁اليمين	-10.37
لاند	-10.37
▁זר	-10.3701
פיל	-10.3702
▁Excel	-10.3702
▁وربما	-10.3704
▁לשני	-10.3709
שירות	-10.371
2%	-10.371
▁היינו	-10.3712
بور	-10.3717
عمل	-10.372
▁المخاطر	-10.3721
طلق	-10.3721
נז	-10.3721
▁שמן	-10.3721
▁החדר	-10.3724
▁נבחר	-10.3724
ub	-10.3727
▁חשמל	-10.373
וא	-10.3731
▁שאי	-10.3734
▁بار	-10.3737
▁المح	-10.3744
ישראל	-10.3745
▁الأدنى	-10.3746
▁מוזר	-10.3747
כס	-10.3749
▁זרים	-10.3749
▁www	-10.3749
▁كار	-10.3749
דן	-10.375
▁القادم	-10.375
▁משפט	-10.3752
▁كو	-10.3753
طب	-10.3756
▁نقوم	-10.3756
▁مربع	-10.3761
▁أطول	-10.3762
يئ	-10.3763
الية	-10.3764
▁الرياضة	-10.3773
▁تقريبًا	-10.3774
▁עזה	-10.3775
جمع	-10.3775
بس	-10.3776
▁الاهتمام	-10.3781
-8	-10.3787
▁מיוחדת	-10.379
▁واشنطن	-10.379
ضع	-10.379
▁مفيدة	-10.379
▁הקרקע	-10.3791
▁לבוא	-10.3791
▁خيارات	-10.3793
▁يقرب	-10.3797
כנו	-10.3798
זי	-10.3801
▁تعريف	-10.3802
يث	-10.3804
▁ביחס	-10.3804
75	-10.3805
فعل	-10.3808
سلام	-10.3808
▁שנתיים	-10.3808
نج	-10.381
▁بالأ	-10.3812
▁ואין	-10.3818
لقد	-10.382
▁לעבר	-10.3824
▁مك	-10.383
جة	-10.3831
ضم	-10.3832
فصل	-10.3839
▁السلوك	-10.3842
▁معالجة	-10.3842
▁לילד	-10.3842
▁נוצר	-10.3845
▁ישוע	-10.3846
ka	-10.3848
▁ברשת	-10.3849
יבה	-10.385
ולד	-10.3851
▁המקורי	-10.3852
▁الخيارات	-10.3856
ذر	-10.3859
ريك	-10.3864
▁חיל	-10.3865
▁فندق	-10.3868
▁בדרום	-10.3869
▁يجري	-10.3869
קבל	-10.3874
انت	-10.3877
▁اليابان	-10.3877
يئة	-10.3879
▁مسؤول	-10.388
▁ארגונים	-10.3889
מפ	-10.3889
▁يسمى	-10.389
▁التعليمية	-10.3891
▁الأنشطة	-10.3891
▁רעיונות	-10.3893
ba	-10.3894
tra	-10.3895
قتل	-10.3896
▁ירי	-10.3897
▁x	-10.3899
▁بريد	-10.3902
هر	-10.3905
▁קורסים	-10.3909
▁بضع	-10.3911
▁בלב	-10.3913
▁دائماً	-10.3916
▁גז	-10.3917
▁التسويق	-10.3921
▁אדום	-10.3923
▁وصل	-10.3927
ليس	-10.3931
▁يعرفون	-10.3931
▁משמעותית	-10.3932
▁הערבית	-10.3933
▁ביטוי	-10.3935
▁התוצאה	-10.3937
▁لمنع	-10.3939
▁وج	-10.394
ניה	-10.394
▁أسعار	-10.3941
דק	-10.3943
▁אינן	-10.3948
▁ער	-10.3949
▁הפרויקט	-10.3949
קנה	-10.3952
▁להגדיר	-10.3954
▁בבתי	-10.3956
▁صاحب	-10.3957
▁להוריד	-10.3958
יקים	-10.3958
▁הזר	-10.3959
▁أداة	-10.396
▁מחפשים	-10.3961
בע	-10.3962
▁דופן	-10.3963
da	-10.3965
▁אזרחי	-10.3966
▁نسخة	-10.3968
▁المطاف	-10.3969
▁הקבוצה	-10.3971
▁المحلي	-10.3974
27	-10.3975
▁النهائي	-10.3979
▁شا	-10.3982
▁הימים	-10.3983
▁בניגוד	-10.3985
▁موعد	-10.3988
▁הסי	-10.399
▁הלבן	-10.3993
]]	-10.3994
▁أفريقيا	-10.3995
▁فلسطين	-10.3997
נך	-10.3997
أمر	-10.3997
▁גרוע	-10.3998
▁פתח	-10.4003
▁אבי	-10.4004
▁إذ	-10.4008
ap	-10.4009
▁الأصدقاء	-10.4009
▁يعيشون	-10.401
▁يمثل	-10.4013
▁נח	-10.4013
▁الغذائي	-10.4015
שא	-10.4021
▁دورات	-10.4025
▁الهجوم	-10.4027
▁المرور	-10.4031
يفة	-10.4033
▁קיימת	-10.4033
▁לעצור	-10.4035
▁المطار	-10.4037
▁المق	-10.4043
▁מתחילים	-10.4045
▁מוכר	-10.4047
▁לשלוט	-10.4049
ud	-10.405
▁בקרוב	-10.4051
▁وضعت	-10.4054
200	-10.4055
▁באוגוסט	-10.4058
▁ישראלים	-10.4058
▁شعر	-10.4061
نين	-10.4061
▁יהודי	-10.4064
▁المناسبة	-10.4066
▁ומש	-10.4066
جير	-10.4066
▁النتيجة	-10.4067
▁يشير	-10.4067
▁מוט	-10.4068
▁الطائرة	-10.407
▁ככה	-10.4073
גב	-10.4074
ill	-10.4077
▁תק	-10.4077
▁الكحول	-10.4078
▁المائة	-10.4089
▁התא	-10.4089
▁الشاشة	-10.409
▁الملف	-10.4093
▁לשמש	-10.4093
▁البدء	-10.4093
▁تذهب	-10.4094
07	-10.4094
عر	-10.4095
▁إلغاء	-10.4097
▁شاهد	-10.4099
▁הראשי	-10.41
▁להניח	-10.4107
بار	-10.4109
▁ביחד	-10.4121
ذكر	-10.4122
فين	-10.4123
شير	-10.4127
▁تكلفة	-10.4128
▁أستطيع	-10.4128
▁الحزب	-10.4131
▁المخدرات	-10.4131
▁جسم	-10.4133
▁اليهودية	-10.4133
▁بضعة	-10.4133
▁טלפון	-10.4134
▁Phen	-10.4137
▁כרגע	-10.4139
▁דמי	-10.4141
▁جون	-10.4142
حكم	-10.4142
▁بريطانيا	-10.4143
قطع	-10.4144
▁האדמה	-10.4149
▁خلف	-10.4156
▁الفرق	-10.4157
▁לפ	-10.4158
▁פעמיים	-10.4159
▁تفاصيل	-10.416
▁מדע	-10.4161
“.	-10.4162
▁بيان	-10.4165
▁عشرات	-10.4165
▁העיקרית	-10.4169
▁בסין	-10.417
▁כבד	-10.4171
▁קור	-10.4172
▁למצב	-10.4172
▁אתמול	-10.4177
▁קטנות	-10.4178
32	-10.4179
שמים	-10.418
▁מתן	-10.4182
04	-10.4182
▁دخل	-10.4183
מע	-10.4184
▁أكون	-10.4185
▁القصة	-10.4185
نحن	-10.4185
▁السماء	-10.4186
دى	-10.4186
▁أساسي	-10.419
▁ההריון	-10.4198
▁الموسم	-10.42
▁المصدر	-10.4203
▁למד	-10.4203
▁أس	-10.4205
▁رسوم	-10.421
▁يمكنه	-10.421
▁الفصل	-10.4211
▁فبراير	-10.4212
ci	-10.4212
▁מלבד	-10.4215
▁הגב	-10.4215
▁وزن	-10.4216
▁בחזרה	-10.4218
▁عنصر	-10.4219
▁נדרש	-10.4225
▁وجد	-10.4226
▁לקדם	-10.4229
▁المواطنين	-10.4229
▁הבחירה	-10.4239
▁למידה	-10.4243
▁الثقافة	-10.4245
▁أية	-10.4245
▁التجارة	-10.4247
▁לר	-10.4249
افة	-10.425
▁تعتقد	-10.4251
ائها	-10.4256
▁חשיבות	-10.4257
נם	-10.4258
▁הקול	-10.4259
▁מאפשרת	-10.426
▁בינלאומית	-10.4261
אג	-10.4263
▁ובכל	-10.4264
▁البشري	-10.4267
▁Be	-10.4268
مار	-10.4269
▁בזה	-10.4271
▁الخطأ	-10.4272
▁שניות	-10.4273
▁וכך	-10.4274
▁سياسي	-10.4276
▁حديث	-10.4277
PS	-10.428
أن	-10.4282
▁فت	-10.429
▁גב	-10.4303
ell	-10.4306
؟!	-10.4306
רוח	-10.4306
▁לעזוב	-10.4307
▁معك	-10.4309
▁عناصر	-10.431
▁قواعد	-10.4316
ex	-10.4318
▁עבודת	-10.4319
▁لاستخدام	-10.4322
▁يتيح	-10.4322
09	-10.4323
سب	-10.4325
▁העבר	-10.433
לך	-10.433
▁بغض	-10.4331
▁مشاركة	-10.4331
▁הפר	-10.4331
▁مهارات	-10.4333
son	-10.4334
▁التحدث	-10.4336
▁היסטוריה	-10.4337
▁המערבית	-10.4339
▁36	-10.4339
▁حياتي	-10.4339
▁בצפון	-10.4344
▁להפעיל	-10.4347
ונג	-10.4349
▁יוכל	-10.4351
▁חר	-10.4352
طول	-10.4356
▁והת	-10.4358
▁بسيط	-10.4358
▁سلوك	-10.436
go	-10.4363
▁סיכון	-10.4364
רוס	-10.4365
▁להתאים	-10.4365
▁أمل	-10.4365
منح	-10.4365
▁האב	-10.4366
▁التجربة	-10.4368
▁الض	-10.437
▁تحقق	-10.4374
▁تمكن	-10.4377
▁שירותים	-10.4378
▁המולד	-10.4379
▁ذهب	-10.4381
▁טרי	-10.4382
▁توقف	-10.4386
▁ناحية	-10.4388
mi	-10.4388
▁نكون	-10.4388
▁التقدم	-10.4389
▁الموارد	-10.439
▁האישה	-10.4391
ראו	-10.4393
▁לשתף	-10.4393
▁צל	-10.44
▁الأفكار	-10.4402
▁فلن	-10.4402
▁ההחלטה	-10.4408
▁מכיר	-10.441
▁העובדים	-10.4411
ضاف	-10.4411
يتها	-10.4417
عرض	-10.4427
▁שמונה	-10.4428
▁ברית	-10.4429
دخل	-10.443
▁אירועים	-10.4432
▁1000	-10.4433
▁מטר	-10.4435
גים	-10.4442
▁מכ	-10.4445
▁חייו	-10.4449
▁ואמר	-10.4451
▁כיוון	-10.4452
▁ض	-10.4453
▁לידי	-10.4454
▁تحاول	-10.4454
▁السنين	-10.4455
▁للا	-10.4455
▁ذو	-10.4457
▁تتمكن	-10.4457
▁قيادة	-10.4459
▁התנועה	-10.4459
▁שיווק	-10.4466
▁האפשר	-10.4466
▁Bo	-10.4467
قب	-10.447
تف	-10.4473
▁מזרח	-10.4473
▁אמור	-10.4475
▁مرتين	-10.4479
▁منخفضة	-10.4481
▁רקע	-10.4482
חזק	-10.4486
▁מוצא	-10.4487
▁יחסית	-10.449
▁שימושי	-10.4498
▁معها	-10.45
ru	-10.45
▁يعاني	-10.45
▁חשובה	-10.4502
اش	-10.4503
05	-10.4503
▁וג	-10.4506
עסק	-10.4509
▁الإشارة	-10.451
▁طائرة	-10.451
▁מותר	-10.4512
▁للجميع	-10.4513
▁הבר	-10.4513
▁חייהם	-10.4518
▁b	-10.4527
▁الاختيار	-10.4527
▁الإرهاب	-10.4527
ائه	-10.4529
▁נכונה	-10.4529
▁إعطاء	-10.453
▁מחפש	-10.4532
غي	-10.4532
▁ام	-10.4534
טרו	-10.4534
▁ثاني	-10.4534
▁פעילויות	-10.4538
▁הבנק	-10.4541
▁تح	-10.4543
▁متحف	-10.4543
▁القديم	-10.4548
ضغط	-10.4549
▁לשאול	-10.455
▁2002	-10.4551
יפ	-10.4551
▁رسائل	-10.4551
رجع	-10.4552
▁بمجرد	-10.4553
▁والن	-10.4554
▁קיימים	-10.4556
▁يطلب	-10.4557
▁ארוכה	-10.456
▁المشتركة	-10.4561
سك	-10.4561
قية	-10.4562
▁الفريق	-10.4564
▁للوصول	-10.4565
▁الكون	-10.4565
▁בל	-10.4565
שאר	-10.4567
▁Home	-10.4569
▁להקל	-10.4571
▁הרפואי	-10.4572
▁جائزة	-10.4572
יא	-10.4575
▁d	-10.4579
ساهم	-10.4579
הוא	-10.4582
▁جهة	-10.4585
03	-10.4585
▁التطبيق	-10.4588
صب	-10.4589
▁الإصابة	-10.4589
▁הנשים	-10.4596
35	-10.4597
ساء	-10.4597
▁بالا	-10.4599
▁עובר	-10.4599
לג	-10.4602
▁للحفاظ	-10.4603
▁معهم	-10.4604
▁فن	-10.4606
▁הגבוהה	-10.4607
▁شعور	-10.4607
▁חיוני	-10.4607
")	-10.4607
▁הרשות	-10.4609
▁شروط	-10.4611
رع	-10.4611
▁واقع	-10.4613
▁ההגנה	-10.4615
ذهب	-10.4623
أي	-10.4624
▁جر	-10.4626
▁فريدة	-10.463
▁הכלכלה	-10.4632
▁صف	-10.4632
▁لمن	-10.4636
רע	-10.4637
▁الهندسة	-10.4637
▁ההורים	-10.4637
▁أنظمة	-10.4639
▁فلسطيني	-10.4641
▁العيش	-10.4642
▁الاتصالات	-10.4646
▁נהרגו	-10.4647
▁Business	-10.4648
כך	-10.4653
▁Apple	-10.4654
▁شعب	-10.4655
▁أد	-10.4656
▁לפגוע	-10.4657
▁الألوان	-10.4657
حصل	-10.4661
נהג	-10.4663
▁פירות	-10.4667
▁רווח	-10.4668
▁מגיעים	-10.4669
▁להשתתף	-10.4669
▁التقرير	-10.4671
▁סימן	-10.4672
▁הראש	-10.4675
▁وتابع	-10.4676
▁שיניים	-10.4677
▁قررت	-10.4677
לנד	-10.4677
▁לענות	-10.4677
6%	-10.4678
▁تبقى	-10.4679
▁إدخال	-10.468
BA	-10.4681
▁זי	-10.4686
ّل	-10.4686
▁מספקת	-10.4687
ES	-10.4688
مير	-10.4688
▁نمط	-10.4689
▁שצריך	-10.4691
▁الدكتوراه	-10.4691
سرع	-10.4691
▁بول	-10.4692
33	-10.4693
▁שישה	-10.4694
▁חשובים	-10.4697
نان	-10.4701
▁العناصر	-10.4702
▁לגיל	-10.4702
▁Ar	-10.4707
دافع	-10.471
גע	-10.471
اتها	-10.4715
▁33	-10.4717
ائع	-10.4718
▁أقرب	-10.4722
▁במה	-10.4722
▁وظائف	-10.4723
▁המכונית	-10.4727
▁מצ	-10.4729
▁توجيه	-10.4729
▁دا	-10.4738
▁محل	-10.4744
ולה	-10.4744
▁وجهة	-10.4746
▁مواد	-10.4747
▁נמל	-10.4748
פטר	-10.4748
▁مواجهة	-10.4749
▁אלכוהול	-10.4749
▁סופר	-10.4752
טב	-10.4753
▁إليك	-10.4753
▁לבריאות	-10.4756
▁الأطباء	-10.4761
زر	-10.4763
▁להראות	-10.4763
The	-10.4765
▁למות	-10.4768
▁המילה	-10.4768
▁למרבה	-10.4769
▁المحتمل	-10.4769
▁משנת	-10.4769
قم	-10.4771
▁يع	-10.4776
▁הלידה	-10.4776
▁יודעת	-10.4777
▁הטרור	-10.4779
▁באוניברסיטת	-10.4781
▁أصحاب	-10.4781
بات	-10.4784
8%	-10.4784
▁חופשי	-10.4784
▁נהג	-10.4787
26	-10.4787
▁أشكال	-10.4788
▁تلقي	-10.4788
دعو	-10.4789
عيد	-10.4791
▁الصينية	-10.4791
▁آمنة	-10.4791
34	-10.4792
▁(1	-10.4795
▁מהווה	-10.4798
▁الكاملة	-10.4798
▁(2	-10.4801
▁קרב	-10.4804
لية	-10.4804
▁בכ	-10.4807
ضمن	-10.4808
טוב	-10.4809
فير	-10.4811
הן	-10.4814
يلي	-10.4815
▁%	-10.4817
our	-10.4819
▁תמ	-10.4819
▁בזכות	-10.4822
▁التحقق	-10.4822
▁تقدير	-10.4823
▁المؤسسة	-10.4823
▁الدين	-10.4823
▁مح	-10.4824
ביא	-10.4825
▁الزواج	-10.4829
▁הקריירה	-10.4831
▁זול	-10.4832
▁שעל	-10.4833
רגש	-10.4835
▁التهاب	-10.4835
جين	-10.4835
▁اليسار	-10.4836
بول	-10.4837
▁היתר	-10.4839
لع	-10.4845
▁OneNote	-10.4845
▁احتمال	-10.4846
▁הצד	-10.4846
▁משת	-10.4851
ضرب	-10.4854
ُّ	-10.4855
▁سلام	-10.4855
▁מורכב	-10.4856
▁تعديل	-10.4857
▁קוריאה	-10.4858
▁כבוד	-10.4859
▁عمله	-10.4859
▁روح	-10.4859
▁الرأس	-10.4861
למו	-10.4861
▁עשרה	-10.4862
▁الجنوبية	-10.4862
ّا	-10.4865
▁טווח	-10.4867
ארה	-10.4868
up	-10.487
▁الاسرائيلي	-10.487
▁הכולל	-10.4872
▁השינה	-10.4874
وبة	-10.4875
▁ليلة	-10.4876
▁مثال	-10.4876
▁בחיי	-10.4876
▁התהליך	-10.4878
ee	-10.4879
▁تعتمد	-10.4883
▁لون	-10.4883
פש	-10.4885
▁יבש	-10.4885
4%	-10.4885
▁מקורות	-10.4885
▁מבינים	-10.4886
▁מז	-10.4887
▁السم	-10.4888
▁לעקוב	-10.4891
▁البنك	-10.4895
▁المطلوبة	-10.4895
▁الزمن	-10.4896
▁والتعليم	-10.4896
▁المناعة	-10.4897
▁المخ	-10.4897
▁رأيت	-10.4899
ציות	-10.4899
▁120	-10.49
حد	-10.4902
وان	-10.4902
▁אשראי	-10.4904
▁الرب	-10.4904
▁أمس	-10.4906
▁بعمل	-10.4908
▁שדה	-10.4908
חזר	-10.4909
▁איטליה	-10.4911
▁الكشف	-10.4911
▁المتوقع	-10.4914
ייט	-10.4915
مس	-10.4918
حاول	-10.4921
▁النباتات	-10.4922
▁النووي	-10.4925
▁إس	-10.4926
▁لتحسين	-10.493
▁أدوات	-10.493
▁החלה	-10.4931
7%	-10.4932
▁نيو	-10.4936
▁להגיש	-10.4939
▁الاستثمار	-10.4939
100	-10.494
جان	-10.494
▁תשובה	-10.4944
▁ביניהם	-10.4945
▁الإنسانية	-10.4948
▁المحيط	-10.4952
▁בדיקה	-10.4952
חור	-10.4955
▁صحية	-10.4956
▁לקח	-10.4956
▁כוללת	-10.4956
▁أمن	-10.4957
רט	-10.4959
▁خطيرة	-10.496
▁معروف	-10.4962
ard	-10.4963
▁ראוי	-10.4964
▁צפון	-10.4965
▁פרטיות	-10.4966
▁מעו	-10.4967
▁אמנם	-10.4968
▁ארוחת	-10.4968
▁חוקרים	-10.497
شت	-10.4972
טא	-10.4974
▁אבטחה	-10.4977
▁סר	-10.4978
الة	-10.498
▁טלוויזיה	-10.4983
▁الصناعة	-10.4984
▁فعال	-10.4985
יפות	-10.4985
▁إنسان	-10.4987
▁المقبل	-10.4989
▁האנושות	-10.4989
▁פתרונות	-10.4989
▁الإجراءات	-10.4989
▁يعلم	-10.4991
▁فأنت	-10.4991
▁מבצע	-10.4993
יפים	-10.4995
▁1967	-10.4998
▁מאיתנו	-10.5
צוות	-10.5
▁בג	-10.5002
▁להילחם	-10.5005
▁المجالات	-10.5008
تع	-10.5011
حمل	-10.5011
▁2019).	-10.5011
▁قامت	-10.5012
▁لان	-10.5014
▁اليد	-10.5016
▁הכלכלי	-10.5017
▁أشعر	-10.5018
▁ملفات	-10.5018
▁משחקי	-10.502
▁מסוימות	-10.5021
▁شرق	-10.5021
▁הבנה	-10.5026
▁حلم	-10.5026
▁נרחב	-10.5026
▁השו	-10.5027
▁والك	-10.5028
▁موسكو	-10.503
יחה	-10.503
▁إذن	-10.5031
▁الروسي	-10.5031
▁معهد	-10.5031
ag	-10.5032
▁מבחינת	-10.5032
▁אמרתי	-10.5034
▁القيمة	-10.5035
▁يتحدث	-10.5036
גני	-10.5037
▁לטווח	-10.5038
▁דלקת	-10.504
▁האחרים	-10.5042
▁الضفة	-10.5048
▁حسابك	-10.5048
ّب	-10.5053
▁קנ	-10.5054
▁בב	-10.5059
▁בחירה	-10.5061
דון	-10.5062
سيم	-10.5063
▁السجن	-10.5063
▁בנק	-10.5063
▁השכרת	-10.5064
▁הולכים	-10.5067
▁הקרב	-10.5067
فضل	-10.5068
▁هاتف	-10.5068
▁الحيوية	-10.507
▁فأ	-10.5071
▁בתקופה	-10.5073
وال	-10.5074
▁لتحديد	-10.5077
▁עמוד	-10.5079
▁القضايا	-10.508
▁להרוויח	-10.508
▁دعونا	-10.508
▁המכשיר	-10.508
▁לשלב	-10.5081
מרו	-10.5082
▁الإسلامية	-10.5082
▁אמת	-10.5083
▁العلم	-10.5083
▁ضروري	-10.5084
▁المنظمات	-10.5086
MS	-10.5089
▁النموذج	-10.5091
▁מוצרי	-10.5095
حدث	-10.5096
▁الأسود	-10.5097
▁السوري	-10.5098
▁בהיסטוריה	-10.5098
يدة	-10.5099
▁הגבוה	-10.51
▁لتقديم	-10.5101
▁العلماء	-10.5102
▁الأساس	-10.5105
▁آب	-10.5107
▁اهتمام	-10.5109
وش	-10.5111
▁מוות	-10.5112
▁وصلت	-10.5114
اته	-10.5116
▁המרכזי	-10.5119
قي	-10.512
▁كلها	-10.512
▁במטרה	-10.5121
خرج	-10.5123
▁טורקיה	-10.5124
▁تكنولوجيا	-10.5124
▁ביו	-10.5126
▁ארגוני	-10.5133
נדי	-10.5134
▁אנטי	-10.5134
▁الخوف	-10.5135
▁جيل	-10.5135
▁רצוי	-10.5138
راب	-10.5139
▁שכבר	-10.5143
▁كبار	-10.5146
قط	-10.5146
65	-10.5149
▁אדמה	-10.5149
▁برشلونة	-10.5151
▁آثار	-10.5154
▁נייר	-10.5155
▁الرسمي	-10.5155
▁مسألة	-10.5156
▁במשרד	-10.5157
מנה	-10.516
ينة	-10.516
ערך	-10.5163
▁עצמאי	-10.5165
▁يرى	-10.5166
دان	-10.5167
▁איתך	-10.5168
▁إعلان	-10.5168
▁جنبا	-10.5169
▁מערב	-10.5172
ستخدم	-10.5173
▁أسئلة	-10.5177
▁Wi	-10.5177
▁כותב	-10.5178
▁تركيز	-10.518
▁التقليدية	-10.5181
▁تس	-10.5182
▁מד	-10.5182
▁القليل	-10.5184
▁שיר	-10.5185
77	-10.5185
▁فحسب	-10.5186
خت	-10.5189
▁עליכם	-10.5191
▁الجامعي	-10.5191
▁تحديث	-10.5192
▁בקשה	-10.5192
▁تلعب	-10.5194
▁تقنية	-10.5194
▁האנושי	-10.5195
▁נקודת	-10.5196
j	-10.5196
▁الحرية	-10.5197
▁يحق	-10.5199
جاز	-10.5199
▁השיער	-10.52
▁הדואר	-10.52
▁מחו	-10.5201
▁מהירה	-10.5201
▁המג	-10.5202
ترك	-10.5202
▁תנועה	-10.5203
▁הערבים	-10.5205
سير	-10.5207
نتاج	-10.521
▁لأولئك	-10.521
▁שגם	-10.5212
▁קורא	-10.5212
▁والب	-10.5213
▁(1)	-10.5215
▁בסך	-10.5216
▁100%	-10.5217
▁חיות	-10.5218
▁هنالك	-10.5218
▁יצא	-10.5218
▁بإمكان	-10.522
▁מסע	-10.5221
لعب	-10.5222
▁2:	-10.5222
▁يو	-10.5224
▁ספרד	-10.5225
▁הזוג	-10.5225
▁שחקנים	-10.5226
ang	-10.5228
▁إقامة	-10.5229
08	-10.523
▁المتاحة	-10.5237
ند	-10.5238
▁מהירות	-10.5238
دون	-10.5241
▁ממנה	-10.5243
▁ملك	-10.5249
כתוב	-10.525
▁ההבדל	-10.525
▁היכן	-10.5253
▁الثقة	-10.5253
▁אבא	-10.5255
وافق	-10.5255
▁הקיץ	-10.5256
▁ולש	-10.5259
▁לשמוע	-10.5261
▁סוכר	-10.5262
▁الباب	-10.5263
▁لضمان	-10.5264
▁الرسالة	-10.5264
נגד	-10.5265
▁الداخلي	-10.5266
▁انظر	-10.5268
▁الانتهاء	-10.5269
▁הצבאי	-10.5272
▁الثورة	-10.5273
▁تف	-10.5276
▁الاحتلال	-10.5277
▁רצון	-10.5282
▁قدرة	-10.5284
▁الأدوات	-10.5285
يدي	-10.5285
וצ	-10.5287
▁הפרטיות	-10.5288
▁ממשלה	-10.5289
▁כוללים	-10.5292
اوي	-10.5292
▁קובע	-10.5295
▁המלא	-10.5297
▁אומרת	-10.5298
▁الطالب	-10.5299
▁נמצאת	-10.5299
▁אנג	-10.53
▁التأثير	-10.5301
▁בתהליך	-10.5302
▁فتاة	-10.5304
▁לכולם	-10.5304
▁الجوية	-10.5306
▁معنا	-10.5307
ّي	-10.5308
▁كوريا	-10.531
▁כלשהו	-10.5316
▁فعله	-10.5317
▁מקרים	-10.5317
بدو	-10.5318
פני	-10.5319
▁נכתב	-10.5319
▁قطعة	-10.532
▁פל	-10.5324
▁היד	-10.5325
▁בדיקת	-10.5328
ليف	-10.5328
bo	-10.533
▁נר	-10.533
▁חם	-10.5331
▁אחוזים	-10.5335
صدق	-10.5338
إسرائيل	-10.5339
ائر	-10.5339
▁Car	-10.5341
we	-10.5342
▁אלימות	-10.5343
ide	-10.5344
▁1:	-10.5344
▁قرر	-10.5345
איר	-10.5346
▁عما	-10.535
▁37	-10.5352
▁המספר	-10.5354
▁ميزة	-10.5355
▁אמריקאי	-10.5355
ber	-10.5357
▁ובכך	-10.5357
▁אליה	-10.5358
▁المسؤول	-10.5359
▁סדר	-10.5359
▁ألم	-10.536
▁يحاول	-10.536
ירי	-10.5361
؟"	-10.5362
משך	-10.5362
89	-10.5364
▁משתנה	-10.5364
▁يشكل	-10.5367
יהן	-10.5367
▁لبعض	-10.5369
▁תגובה	-10.537
▁قليلة	-10.5372
▁مواطن	-10.5373
▁לקו	-10.5375
▁طبيعية	-10.5377
ראי	-10.5377
▁الرقم	-10.5378
▁ירידה	-10.538
▁הכרחי	-10.5382
▁הד	-10.5382
▁المنظمة	-10.5382
מך	-10.5383
▁بحسب	-10.5385
▁לתקן	-10.5386
اعرض	-10.5386
▁احتياجات	-10.5389
▁מוסדות	-10.5391
عيش	-10.5393
اري	-10.5394
ذا	-10.5396
טיס	-10.5398
אנג	-10.5401
▁המהפכה	-10.5404
▁الروح	-10.5404
▁القمر	-10.5407
ונו	-10.5407
▁الأبحاث	-10.5407
ip	-10.5408
▁الشارع	-10.5409
▁تخزين	-10.541
▁الفئران	-10.5412
סים	-10.5416
▁عطلة	-10.5416
▁الحي	-10.5416
▁לחלק	-10.5419
ء	-10.5422
▁משפחת	-10.5422
▁Ro	-10.5427
▁الشرقية	-10.5428
▁תאריך	-10.543
▁מטרת	-10.543
▁מכשיר	-10.543
▁שאם	-10.5431
أس	-10.5435
▁بنفس	-10.5437
רא	-10.5438
ow	-10.5441
▁واست	-10.5444
▁اعتبار	-10.5445
▁أسفل	-10.5448
▁סיום	-10.5448
▁إنّ	-10.5449
▁الاختبار	-10.5455
▁קורס	-10.5457
نظم	-10.5457
Fi	-10.5457
▁خطوات	-10.5458
ER	-10.5459
▁الرد	-10.546
▁קבע	-10.5461
▁غرف	-10.5466
▁التعرف	-10.5466
▁השונים	-10.5468
ראש	-10.547
ov	-10.5471
▁حفل	-10.5472
▁إصلاح	-10.5476
▁القسم	-10.5476
עמד	-10.5478
רית	-10.5482
pa	-10.5483
▁ישו	-10.5486
▁לאסוף	-10.5486
▁فإنها	-10.5488
▁דווקא	-10.549
▁סקר	-10.5491
▁הצוות	-10.5493
اص	-10.5494
VPN	-10.5494
▁הרב	-10.5495
▁تزيد	-10.5496
▁בהשוואה	-10.55
▁העיקריים	-10.55
▁اجل	-10.5501
يء	-10.5501
▁السماح	-10.5503
▁e	-10.5503
خي	-10.5505
▁קדימה	-10.5507
▁ראשונה	-10.5508
▁Mi	-10.5511
▁טובות	-10.5512
▁Street	-10.5513
▁الآثار	-10.5514
يض	-10.5516
▁בעצם	-10.5516
▁לחיים	-10.5516
▁جميعا	-10.5517
فق	-10.5518
95	-10.5519
▁والآن	-10.552
▁جا	-10.5522
▁החומר	-10.5522
َّ	-10.5523
org	-10.5524
▁משני	-10.5524
רוק	-10.5526
▁مفتوحة	-10.5528
▁מהן	-10.553
▁בדם	-10.5533
فع	-10.5533
▁يمكنهم	-10.5533
▁ההר	-10.5535
▁حفظ	-10.5538
▁المقالة	-10.5541
▁חס	-10.5542
فات	-10.5543
▁רשימה	-10.5543
ty	-10.5546
▁جميل	-10.5547
▁الرسائل	-10.5547
▁1948	-10.5547
▁المكونات	-10.5549
▁רצו	-10.5554
▁הכ	-10.5557
▁الفرنسي	-10.5557
▁שאת	-10.5558
▁أصغر	-10.5558
▁בניו	-10.5559
▁ועם	-10.5561
מוס	-10.5562
ומ	-10.5567
▁המציאות	-10.5567
אלה	-10.5567
دف	-10.5568
▁בנות	-10.557
جري	-10.557
רב	-10.5571
فتح	-10.5574
OS	-10.5574
▁במקומות	-10.5576
▁الأسلحة	-10.5576
▁גבולות	-10.5578
▁סיפר	-10.5581
عطي	-10.5583
▁לבטל	-10.5584
▁פחד	-10.5586
▁הסטודנטים	-10.5587
▁حديقة	-10.5587
▁במרחק	-10.5588
▁צבאי	-10.5588
חיל	-10.5588
▁البحرية	-10.5596
▁الإلكترونية	-10.5596
كار	-10.5597
▁سابق	-10.5597
▁דיווח	-10.5598
▁עצמית	-10.5599
▁بهدف	-10.5599
▁למלא	-10.56
▁אלינו	-10.5601
درس	-10.5601
▁לנשים	-10.5602
▁שחי	-10.5604
تحدث	-10.5605
▁באמצע	-10.5607
▁الدورات	-10.5607
تز	-10.561
الك	-10.5614
▁المشاريع	-10.5616
sa	-10.5617
رسل	-10.5618
מט	-10.5619
▁حي	-10.5621
ודי	-10.5621
▁טקסט	-10.5621
ועד	-10.5622
▁מאמר	-10.5622
▁נפתח	-10.5623
אש	-10.5624
▁لتطوير	-10.5625
▁مدة	-10.5627
▁ציוד	-10.5627
▁ההשפעה	-10.5628
لب	-10.5633
▁בשבילך	-10.5633
▁קא	-10.5635
''	-10.5635
▁الحجم	-10.5636
▁חלקים	-10.5638
▁היעד	-10.5641
בחר	-10.5642
▁פרויקטים	-10.5643
▁زوج	-10.5644
▁קבצים	-10.565
▁לישון	-10.5651
▁يكونوا	-10.5653
▁האזרחים	-10.5654
▁الأطعمة	-10.5656
▁נשמע	-10.5659
▁المفضلة	-10.566
▁בסביבה	-10.566
▁الغرب	-10.5661
▁محرك	-10.5663
▁מסת	-10.5667
▁מיידי	-10.5669
تزوج	-10.567
تن	-10.5671
ائد	-10.5672
▁فهذا	-10.5673
ائ	-10.5675
▁يستغرق	-10.5678
לוט	-10.5678
قوم	-10.5678
▁تأسست	-10.5682
▁يهم	-10.5683
▁الخطوات	-10.5685
ou	-10.5686
▁أعلاه	-10.5688
▁الإسرائيليين	-10.5689
▁الآ	-10.569
▁البريطاني	-10.5691
▁העובד	-10.5692
▁הייצור	-10.5694
AR	-10.5694
▁طرف	-10.5694
▁الصف	-10.5695
▁מכונית	-10.5697
חול	-10.5698
▁فرض	-10.5699
▁מעולה	-10.5702
▁المعروف	-10.5702
سام	-10.5702
▁المئة	-10.5702
▁העיניים	-10.5702
▁קובץ	-10.5703
▁הפל	-10.5704
▁שאל	-10.5705
وفر	-10.5705
▁الجنسي	-10.5707
▁בפברואר	-10.5707
36	-10.5708
▁شيئًا	-10.5708
קדם	-10.5708
▁וחצי	-10.571
▁ההי	-10.571
▁חום	-10.5712
▁מזג	-10.5715
▁המשך	-10.5716
▁خلايا	-10.5717
▁הטובות	-10.5717
راك	-10.5717
▁אס	-10.5718
▁والج	-10.5718
بني	-10.5719
▁לט	-10.5723
יח	-10.5725
▁אליהם	-10.5726
▁أقوى	-10.5728
כש	-10.5729
▁Ra	-10.5729
וּ	-10.5731
▁התוכנה	-10.5732
di	-10.5733
▁סנט	-10.5736
▁أليس	-10.5736
▁הגבול	-10.5737
▁Online	-10.5739
▁Sh	-10.574
55	-10.5743
▁זכאי	-10.5744
▁لإسرائيل	-10.575
▁ينظر	-10.575
رين	-10.5752
▁الكهربائية	-10.5752
לול	-10.5755
▁Do	-10.5756
▁דר	-10.5756
▁גידול	-10.5757
تني	-10.5757
▁رسم	-10.5758
▁المسيح	-10.5763
▁الداخل	-10.5763
בצע	-10.5764
▁בצ	-10.5766
▁وش	-10.5767
בני	-10.577
▁SharePoint	-10.5772
▁جزيرة	-10.5772
אופ	-10.5773
▁75	-10.5778
▁הל	-10.5778
▁لحماية	-10.5779
▁No	-10.578
▁قياس	-10.5784
▁تختلف	-10.5788
▁בחירת	-10.5789
בין	-10.579
▁تعطي	-10.5791
תן	-10.5794
▁يرغبون	-10.5796
تعرف	-10.5797
po	-10.5798
38	-10.5799
▁يجوز	-10.5799
▁נסיעה	-10.5808
דמי	-10.5808
▁تساعدك	-10.5812
ستان	-10.5813
▁حدد	-10.5814
▁والق	-10.5816
בנים	-10.5819
▁الأسعار	-10.5822
▁לטובת	-10.5823
▁كلما	-10.5824
▁בשפה	-10.5824
▁הליכה	-10.5829
▁قلق	-10.5829
375	-10.5829
▁נק	-10.5831
כמו	-10.5831
▁المجلس	-10.5833
ילד	-10.5835
▁האוכלוסייה	-10.5844
sp	-10.5845
▁רעיון	-10.5847
▁לימודי	-10.5847
▁אחראי	-10.5848
▁بمثابة	-10.5849
תק	-10.5849
עולם	-10.5849
▁الصراع	-10.585
▁عاماً	-10.5851
▁האמריקני	-10.5852
▁ملابس	-10.5853
▁سيئة	-10.5854
▁المشاركين	-10.5854
86	-10.5855
درج	-10.5855
باع	-10.5857
▁סמל	-10.5859
▁عالمي	-10.5859
▁יח	-10.586
▁يوميا	-10.5861
▁الانتقال	-10.5863
▁כחול	-10.5864
▁أستراليا	-10.5864
▁تستمر	-10.5869
▁وبال	-10.587
טיב	-10.587
▁استخدامه	-10.587
رح	-10.5873
▁הגדולות	-10.5874
▁רשמי	-10.5875
▁יתרונות	-10.5875
▁חובה	-10.5876
טן	-10.5878
▁עלולה	-10.5881
▁المهام	-10.5882
▁מידה	-10.5883
لال	-10.5885
▁لأكثر	-10.5887
▁طبية	-10.5889
▁אינך	-10.5892
▁المقدس	-10.5894
▁המקרים	-10.5896
▁במי	-10.5899
أخذ	-10.59
ליט	-10.5901
▁فيروس	-10.5901
▁הקודש	-10.5902
▁Q	-10.5906
▁n	-10.5906
31	-10.5907
נון	-10.5907
ائك	-10.5909
▁למידע	-10.5911
מק	-10.5915
▁أعد	-10.5915
▁الأعراض	-10.5915
סייע	-10.592
▁זקוק	-10.5921
دمج	-10.5922
▁سرعة	-10.5929
▁בבקשה	-10.5931
هذا	-10.5933
שב	-10.5936
▁مضى	-10.5939
▁تدفع	-10.5943
AS	-10.5945
▁غالبا	-10.5947
▁يدفع	-10.5948
▁להחליף	-10.5954
▁التابعة	-10.5954
▁לצ	-10.5955
▁العادية	-10.5959
▁בהמשך	-10.5962
وط	-10.5964
▁כחלק	-10.5966
▁אב	-10.5967
▁ממך	-10.5968
الأ	-10.5969
▁اللاعبين	-10.5969
▁شكرا	-10.597
جعل	-10.5971
▁מדהים	-10.5972
▁شر	-10.5975
باب	-10.5975
▁מכתב	-10.5975
▁בשעה	-10.5977
▁יישום	-10.5979
▁מרי	-10.5979
▁קלה	-10.598
▁שער	-10.5982
▁إضافي	-10.5984
▁ترتيب	-10.5984
▁الألمانية	-10.5986
▁الأداء	-10.5988
يكي	-10.5988
מין	-10.599
▁בשנות	-10.599
ثير	-10.5992
سلط	-10.5993
▁2001	-10.5995
▁היית	-10.5995
▁תגובות	-10.5996
▁حم	-10.5996
va	-10.6
▁مبكر	-10.6006
▁الكتابة	-10.6006
موت	-10.6008
▁למדינה	-10.601
▁יעזור	-10.6011
▁התמיכה	-10.6011
▁הקודם	-10.6013
▁الأبد	-10.6014
▁تعود	-10.6015
▁التنفس	-10.6016
סטי	-10.6016
▁גופנית	-10.6017
ver	-10.6018
▁טכנולוגיה	-10.6018
▁מכירים	-10.6018
▁לשתות	-10.6019
حر	-10.6019
▁i	-10.6022
▁הכלב	-10.6023
▁ואילו	-10.6024
▁يشمل	-10.6024
רן	-10.6025
▁الأفراد	-10.6025
▁התו	-10.6026
חזור	-10.6028
▁להחזיר	-10.6031
▁למטרות	-10.6031
▁أسماء	-10.6031
ائق	-10.6033
▁סגור	-10.6033
▁القرية	-10.6034
▁إلكتروني	-10.6036
قبل	-10.6037
▁كور	-10.6039
ימת	-10.6039
▁המח	-10.6039
▁للمساعدة	-10.6039
87	-10.604
▁مستخدم	-10.6041
▁قليلاً	-10.6042
▁הדג	-10.6044
▁صعب	-10.6045
هو	-10.6045
▁יוצר	-10.6048
▁حقًا	-10.6049
▁القتال	-10.605
▁الأصلية	-10.605
בוא	-10.605
▁בקו	-10.6052
▁الكهرباء	-10.6053
▁המוות	-10.6054
▁مراقبة	-10.6054
▁("	-10.6059
▁صباح	-10.6059
▁אובדן	-10.6061
ذب	-10.6062
▁شرب	-10.6062
land	-10.6064
▁התשובה	-10.6065
▁فعالة	-10.6067
صير	-10.6069
לון	-10.607
▁סרטים	-10.6072
▁النص	-10.6074
▁בסרט	-10.6074
23	-10.6074
▁הצלחה	-10.6075
زال	-10.6076
▁בהצלחה	-10.6077
▁العلمي	-10.6084
▁יצר	-10.6086
▁תח	-10.6086
28	-10.6088
▁الحكومية	-10.6088
▁يحمل	-10.6089
ak	-10.6091
PA	-10.6093
▁الكنيسة	-10.6094
▁الأردن	-10.6097
▁الفرص	-10.6097
▁الأعلى	-10.6098
▁לבני	-10.6101
▁حلول	-10.6101
رؤ	-10.6102
قاد	-10.6103
حام	-10.6103
▁التاريخية	-10.6104
▁المو	-10.6104
▁الأفلام	-10.6105
▁الشاي	-10.6106
▁מכוניות	-10.6112
▁فريد	-10.6113
bi	-10.6114
▁נוכל	-10.6119
▁الكرة	-10.612
▁להציל	-10.612
▁البريطانية	-10.6124
▁מטרה	-10.6126
▁הציבורי	-10.6127
▁وح	-10.6127
▁במקביל	-10.6134
▁القيم	-10.6135
▁أيّ	-10.6135
▁الرابع	-10.6136
▁الإمكان	-10.6138
▁פשוטה	-10.6138
▁عا	-10.614
vi	-10.6143
פצע	-10.6145
▁צעדים	-10.6146
ثق	-10.6147
טות	-10.6147
▁لعام	-10.6147
خر	-10.6148
דף	-10.6149
▁روما	-10.6149
פרי	-10.6149
▁טבע	-10.6149
▁Th	-10.6152
▁אתרים	-10.6157
▁מבקש	-10.6157
טכנולוגי	-10.6159
▁החשבון	-10.6163
▁المسؤولية	-10.6163
رار	-10.6164
▁صعبة	-10.6165
▁החדשות	-10.6165
▁חיבור	-10.6166
▁כולה	-10.6169
▁t	-10.6173
▁سيما	-10.6175
▁הכשרה	-10.6178
▁צה	-10.6179
▁والش	-10.6179
שאל	-10.618
▁الأمنية	-10.6183
▁לכ	-10.6183
▁حا	-10.6186
▁כלום	-10.6186
▁איתם	-10.6188
▁מפעיל	-10.619
▁تعاني	-10.6191
▁חש	-10.6191
be	-10.6196
▁فهل	-10.6197
▁أقصى	-10.6202
▁أخبر	-10.6205
▁בטוחים	-10.6207
AT	-10.6207
▁הנו	-10.6207
▁غو	-10.6208
▁القهوة	-10.6209
ana	-10.621
وجه	-10.6211
▁בבריטניה	-10.6213
▁عسكرية	-10.6214
طة	-10.6217
▁גבוהים	-10.6221
▁בהריון	-10.6221
ננו	-10.623
رجل	-10.6232
▁כראוי	-10.6232
▁أسوأ	-10.6237
▁مئوية	-10.6238
אמר	-10.6243
▁קשור	-10.6245
▁التدخين	-10.6249
▁ראיתי	-10.625
▁MBA	-10.6251
▁42	-10.6251
▁النطاق	-10.6252
ED	-10.6252
▁تأجير	-10.6254
وها	-10.6257
קבע	-10.6259
رام	-10.6262
▁65	-10.6262
شاهد	-10.6264
▁يمنع	-10.6267
▁עבודתו	-10.6267
ear	-10.627
▁מופיע	-10.6275
od	-10.6275
▁شجرة	-10.6278
▁المسلمين	-10.6279
▁ייחודי	-10.628
▁הכוחות	-10.628
יכה	-10.6281
ديد	-10.6286
فجر	-10.6287
▁قوانين	-10.6289
▁Con	-10.629
▁الاجتماع	-10.6292
der	-10.6292
دري	-10.6294
▁مشترك	-10.6294
لوم	-10.6296
▁مجانية	-10.6296
▁הגישה	-10.6299
▁التجارب	-10.63
شن	-10.6301
▁רציני	-10.6303
عات	-10.6303
يتي	-10.6304
▁מנסים	-10.6306
▁العلمية	-10.6307
▁להעריך	-10.6308
▁ماك	-10.631
برا	-10.6313
▁האויב	-10.6314
▁חייבת	-10.6314
שלוש	-10.6315
▁הבסיס	-10.6323
▁التخطيط	-10.6323
▁המל	-10.6324
▁الحين	-10.6326
جا	-10.6328
قاب	-10.6332
ورد	-10.6337
▁يح	-10.6339
נצח	-10.6339
▁السريع	-10.6341
▁עזר	-10.6341
ידות	-10.6341
▁العصر	-10.6342
▁الصيني	-10.6342
▁אימון	-10.6343
ידו	-10.6343
كيف	-10.6345
▁אלי	-10.6347
91	-10.6347
▁الثلاث	-10.6348
ist	-10.6352
▁re	-10.6352
اتك	-10.6353
▁מבוגרים	-10.6354
▁يلعب	-10.6354
art	-10.6354
▁תופעות	-10.6355
▁ירד	-10.6356
ity	-10.6363
است	-10.6364
▁הכר	-10.6365
▁صندوق	-10.6367
▁الحماية	-10.6368
▁נקבע	-10.6368
גם	-10.6371
▁נוכחות	-10.6373
▁التفاعل	-10.6374
▁ير	-10.6374
▁עשו	-10.6375
▁متطلبات	-10.6377
▁أبدًا	-10.6378
▁הקמת	-10.6379
▁נפרד	-10.638
قار	-10.638
ix	-10.6381
▁38	-10.6383
حص	-10.6385
عمال	-10.6389
נוח	-10.639
▁قانوني	-10.639
▁למטה	-10.639
▁שאפשר	-10.6392
▁وخ	-10.6392
صة	-10.6393
▁Adobe	-10.6396
▁الضرائب	-10.6396
▁מועיל	-10.6398
▁الشروط	-10.6403
وحد	-10.6404
وفي	-10.6404
عين	-10.6405
▁وأنه	-10.6405
▁المعركة	-10.6406
رات	-10.6407
▁الدخل	-10.6407
راض	-10.6409
▁فعالية	-10.6409
▁الأخضر	-10.641
▁السعر	-10.6411
▁תיק	-10.6412
▁פועלים	-10.6412
יף	-10.6418
▁המפלגה	-10.6418
▁החוף	-10.6419
▁أعلن	-10.642
חבר	-10.6421
נדר	-10.6422
▁תיאור	-10.6424
▁سياسية	-10.6425
▁שיחות	-10.6426
▁الظهر	-10.6428
כוח	-10.6428
ps	-10.6433
▁הממשל	-10.6434
▁مباشر	-10.6436
▁بقدر	-10.6437
▁تست	-10.6438
▁היי	-10.6438
▁الجدار	-10.6438
▁ואל	-10.6438
▁איננו	-10.6439
-200	-10.6441
▁الفندق	-10.6446
ינס	-10.6447
عم	-10.6448
כנת	-10.6448
ريس	-10.6451
فرد	-10.6452
ימי	-10.6453
▁الغذاء	-10.6455
بيت	-10.6456
▁הטכנולוגיה	-10.6457
▁ويب	-10.6458
▁شأنها	-10.6459
▁بعيدا	-10.6461
▁מור	-10.6464
▁שאנשים	-10.6464
▁הרשויות	-10.6465
▁תנאים	-10.6466
▁أعراض	-10.6467
▁نوعية	-10.647
IS	-10.6474
قرار	-10.6474
▁يعملون	-10.6477
▁مماثلة	-10.6477
ho	-10.6479
مد	-10.6479
▁250	-10.6479
امة	-10.6487
▁سمعت	-10.649
▁במשרה	-10.649
▁הלי	-10.6491
▁دولية	-10.6492
סות	-10.6493
▁For	-10.6493
▁مريحة	-10.6494
بعث	-10.6494
▁مخ	-10.6496
▁You	-10.6497
כתב	-10.6497
▁מנ	-10.6498
ong	-10.6499
▁جيدًا	-10.65
שמע	-10.6503
ts	-10.6503
▁הפכה	-10.6516
▁يومًا	-10.6517
▁צילום	-10.6517
▁האפשרי	-10.6517
▁الشيطان	-10.652
▁وعدم	-10.6521
▁הלקוח	-10.6522
▁ברי	-10.6525
▁34	-10.6525
دام	-10.6525
▁ישיר	-10.6526
▁משותף	-10.6529
▁1.5	-10.6529
ونا	-10.653
▁بات	-10.6531
▁אופי	-10.6532
طي	-10.6532
▁رأي	-10.6532
عي	-10.6534
▁ענק	-10.6535
▁במים	-10.6537
▁يذهب	-10.6537
▁קמ	-10.6538
▁העברת	-10.654
▁العضلات	-10.6541
▁New	-10.6542
▁בעיני	-10.6543
▁هجوم	-10.6545
▁לגשת	-10.6546
▁הרשת	-10.6548
▁ושוב	-10.6549
▁החלל	-10.655
▁لشراء	-10.6551
ite	-10.6553
▁شريط	-10.6554
▁الأكاديمي	-10.6556
▁An	-10.656
▁אמיתית	-10.6561
▁קוראים	-10.6562
מול	-10.6562
רז	-10.6562
▁ممتازة	-10.6563
▁רשימת	-10.6567
▁אופן	-10.6573
▁תאי	-10.6574
▁מודע	-10.6578
▁وع	-10.6579
gi	-10.658
▁הגו	-10.658
▁שפות	-10.658
▁قيم	-10.6583
AC	-10.6584
ai	-10.6584
▁החשוב	-10.6587
ick	-10.6587
29	-10.6587
▁الخطر	-10.6587
▁غرام	-10.6591
דוד	-10.6591
▁מדויק	-10.6593
▁יושב	-10.6594
▁הפתרון	-10.6597
▁האלקטרוני	-10.6598
-17	-10.6598
-16	-10.66
ستعمل	-10.6601
▁الرغبة	-10.6601
▁المستخدمة	-10.6601
▁الإجراء	-10.6602
ננים	-10.6603
▁جزئي	-10.6607
▁בגודל	-10.6608
oc	-10.661
אזור	-10.6611
▁היסטורי	-10.6611
▁الخبراء	-10.6612
▁מבית	-10.6612
▁الرحلة	-10.6613
▁המשתמשים	-10.6615
▁كمبيوتر	-10.6617
▁התנאים	-10.6618
רצי	-10.6618
▁חיובי	-10.6621
▁المطلوب	-10.6622
▁أراد	-10.6623
ستمر	-10.6623
▁الحساب	-10.6625
mb	-10.6625
▁التربية	-10.663
▁البيان	-10.6631
▁آمن	-10.6631
▁הכנסה	-10.6631
سة	-10.6631
▁عكس	-10.6632
▁לפיתוח	-10.6635
▁מוביל	-10.6636
▁עובדות	-10.6638
▁المدنية	-10.6638
▁אתרי	-10.664
▁الثدي	-10.664
▁الفحص	-10.6641
▁وجبة	-10.6643
בק	-10.6644
جيل	-10.6647
▁הרשמי	-10.6648
▁הוועדה	-10.6648
▁שקט	-10.6648
מיר	-10.665
▁آسيا	-10.6651
▁لصالح	-10.6652
▁قبول	-10.6652
44	-10.6654
▁اجتماع	-10.6654
▁העתיקה	-10.6655
▁أبداً	-10.6656
חלק	-10.6658
78	-10.6659
SE	-10.666
▁דרישות	-10.666
▁مجانا	-10.6665
خفض	-10.6666
مال	-10.6666
▁احت	-10.6669
▁مراجعة	-10.6669
1%	-10.6671
▁בספר	-10.6672
יסט	-10.6673
▁وبعض	-10.6674
▁مبلغ	-10.6675
▁خطط	-10.6675
▁המעבר	-10.6676
▁לתמוך	-10.6676
▁המדע	-10.668
▁Lo	-10.668
▁يفهم	-10.6682
▁לאבד	-10.6682
▁أمي	-10.6686
▁וס	-10.669
▁זקוקים	-10.6694
▁الموظفين	-10.6697
▁متأكد	-10.6697
זל	-10.6699
▁الكلب	-10.6701
صنع	-10.6702
تشر	-10.6704
▁בטיחות	-10.6705
▁تبلغ	-10.6707
▁للمرة	-10.6708
דבק	-10.6708
▁أدى	-10.6714
▁المص	-10.6716
▁בקר	-10.6718
▁חזר	-10.6723
דם	-10.6724
▁דגים	-10.6728
▁מקוון	-10.6729
▁بينهم	-10.6729
▁حمل	-10.673
راف	-10.6731
▁الحليب	-10.6731
יצ	-10.6733
▁באזורים	-10.6733
▁العنوان	-10.6734
▁פותח	-10.6735
▁مستقل	-10.6738
ريا	-10.674
ניק	-10.6741
شجع	-10.6742
lu	-10.6742
▁לימודים	-10.6744
▁اختر	-10.6746
اسم	-10.675
▁on	-10.6751
גז	-10.6751
سخ	-10.6752
▁כלכלית	-10.6752
▁غرب	-10.6755
▁التخصصات	-10.6755
▁העד	-10.6756
קוד	-10.6757
▁נתוני	-10.6758
عداد	-10.676
كتب	-10.6761
▁أهل	-10.6764
▁الاعتماد	-10.6765
ידה	-10.6766
-100	-10.6767
▁Sp	-10.6768
▁المشترك	-10.6769
سجل	-10.6771
06	-10.6771
קרו	-10.6772
▁الزراعة	-10.6774
فون	-10.6774
▁תוספת	-10.6778
▁الناحية	-10.678
▁לשקול	-10.6781
▁الإعلانات	-10.6782
פרו	-10.6782
משחק	-10.6783
▁בכתב	-10.6783
▁תחומי	-10.6786
▁البرازيل	-10.6786
ضر	-10.6786
אחר	-10.6787
▁ביקש	-10.6787
▁سفر	-10.6789
▁מטרים	-10.679
▁הורים	-10.6792
▁الصحي	-10.6793
▁המטופל	-10.6797
غان	-10.6799
▁המדיניות	-10.68
ner	-10.6801
עז	-10.6807
-9	-10.6807
tal	-10.6808
▁בעלות	-10.6809
▁لتكون	-10.6809
وقف	-10.6811
يتك	-10.6812
▁בצרפת	-10.6813
▁להקים	-10.6819
▁الطرف	-10.682
ائم	-10.6821
شد	-10.6823
▁بنفسك	-10.6824
קשר	-10.6827
ائهم	-10.683
▁محتوى	-10.6831
▁المركزية	-10.6832
لوك	-10.6833
זציה	-10.6833
▁אסיה	-10.6839
▁למכור	-10.6839
מערכת	-10.6839
85	-10.6846
جلس	-10.6846
▁ברורה	-10.6847
▁זמינים	-10.6847
▁معروفة	-10.6847
▁הרוסי	-10.6849
▁يبقى	-10.685
▁2018).	-10.6851
למה	-10.6852
▁לפיכך	-10.6852
▁התחיל	-10.6852
▁מיקום	-10.6858
بقى	-10.6858
▁האמריקאית	-10.686
39	-10.686
▁الفتيات	-10.6861
▁الجيد	-10.6862
▁لله	-10.6862
▁הממוצע	-10.6862
فور	-10.6871
37	-10.6874
▁القراءة	-10.6874
تعلم	-10.6874
▁ישראלי	-10.6874
فحص	-10.6874
▁איזו	-10.6878
▁השב	-10.6878
▁דובר	-10.688
▁قصير	-10.6882
ומו	-10.6886
▁تعني	-10.6886
מב	-10.6887
سكن	-10.6889
▁מושג	-10.6891
▁מוסד	-10.6893
▁נפלא	-10.6895
▁החברים	-10.6897
▁משימות	-10.6898
▁החוקרים	-10.6901
▁הערך	-10.6901
ve	-10.6901
مرة	-10.6903
▁מינית	-10.6904
كين	-10.6904
▁أسهل	-10.6906
בטיח	-10.6907
▁600	-10.6907
شاء	-10.6907
▁סימנים	-10.6909
▁g	-10.6911
▁עורך	-10.6912
▁הפי	-10.6913
88	-10.6914
▁הצרכים	-10.6914
▁تشخيص	-10.6914
▁الآلاف	-10.6917
▁فر	-10.692
▁كبيرا	-10.692
▁לרדת	-10.6922
▁القانوني	-10.6922
ميز	-10.6924
נע	-10.6925
▁המקור	-10.6925
▁שניהם	-10.6929
▁הוראות	-10.693
▁55	-10.6932
יצור	-10.6933
▁بعيد	-10.6935
▁תרופה	-10.6937
פרש	-10.6938
▁המזרח	-10.6938
▁לאחד	-10.6938
▁התפקיד	-10.6942
▁לאזור	-10.6945
▁الكلام	-10.6945
▁חלקי	-10.6948
▁להוציא	-10.695
▁עלולים	-10.6951
▁الامر	-10.6953
▁شارك	-10.6954
▁درجات	-10.6957
لر	-10.6957
▁צמחים	-10.6959
▁אוסטרליה	-10.6961
▁سعيد	-10.6962
].	-10.6963
▁الموقف	-10.6963
ניס	-10.6965
cy	-10.6966
▁وبالإضافة	-10.6966
تق	-10.6968
▁غيرها	-10.6968
▁ברק	-10.6969
▁תוצאה	-10.6971
▁משפחות	-10.6972
AL	-10.6973
קומה	-10.6973
▁نتحدث	-10.6974
▁بأنها	-10.6975
▁التقاعد	-10.6976
גד	-10.6977
▁بعضها	-10.6977
▁الاعتراف	-10.6978
▁الوسطى	-10.6978
פרסם	-10.6978
بق	-10.6979
▁אידיאלי	-10.6979
▁الكيميائية	-10.6979
عكس	-10.698
▁وص	-10.6981
▁סובל	-10.6981
▁הקש	-10.6981
תנו	-10.6984
▁הבוקר	-10.6985
פיק	-10.6985
▁الزجاج	-10.6986
▁השאר	-10.6986
ספק	-10.6988
▁إلي	-10.6989
▁الحيوان	-10.6989
▁הראשונות	-10.699
▁قادة	-10.699
▁وسن	-10.6991
بيل	-10.6992
ast	-10.6993
طبيع	-10.6994
باء	-10.6995
▁האדום	-10.6996
▁ציבורי	-10.6997
פשט	-10.7
▁במרץ	-10.7003
97	-10.7004
▁במצרים	-10.7005
▁ويت	-10.7005
▁أكن	-10.7006
▁דיבר	-10.7007
▁המסך	-10.7009
▁ظهرت	-10.7009
▁اتجاه	-10.701
▁كر	-10.7012
وخ	-10.7013
▁التجاري	-10.7014
▁המש	-10.7014
▁للس	-10.7016
▁ממליצים	-10.7018
ster	-10.7019
▁العلامات	-10.7021
▁קט	-10.7024
▁الجزيرة	-10.7026
▁גרעיני	-10.7028
▁الإيراني	-10.7031
2)	-10.7033
لف	-10.7034
▁במחיר	-10.7035
67	-10.7036
-14	-10.7037
▁مفهوم	-10.7038
▁מודל	-10.7039
▁بنجاح	-10.7039
▁حرية	-10.7042
נסה	-10.7042
▁تصنيف	-10.7042
הפך	-10.7044
EM	-10.7045
▁إسبانيا	-10.7045
▁تتبع	-10.7045
▁احد	-10.7046
▁תחושה	-10.7054
▁الطويل	-10.7054
▁מודעות	-10.7055
▁מומחה	-10.7057
▁בשיתוף	-10.7064
قترح	-10.7064
▁שנקרא	-10.7064
▁באחד	-10.7065
▁שנמצא	-10.7067
ek	-10.7068
▁بح	-10.7068
שרה	-10.7069
גול	-10.707
סק	-10.7072
▁המלון	-10.7072
9%	-10.7072
▁تجري	-10.7073
▁تغييرات	-10.7074
انة	-10.7075
▁יחידות	-10.7078
▁برو	-10.708
▁شخصي	-10.7081
▁وقبل	-10.7083
▁القلق	-10.7083
▁להסביר	-10.7085
غن	-10.7086
▁فجأة	-10.7087
▁لإنشاء	-10.7087
▁תינוק	-10.7087
▁פס	-10.7089
▁רגל	-10.7089
▁האהבה	-10.709
▁الحاضر	-10.7091
▁אוהבת	-10.7092
▁الرقمية	-10.7096
▁تدخل	-10.7098
▁יחיד	-10.7098
tion	-10.7099
▁الدرجة	-10.7102
תוך	-10.7103
▁تمثل	-10.7106
▁לבסוף	-10.7106
لون	-10.7107
مين	-10.7107
▁بينها	-10.711
▁להצטרף	-10.7111
▁يطلق	-10.7112
▁ישנן	-10.7112
▁الأنواع	-10.7114
▁צדק	-10.7116
▁مثالية	-10.7116
יכם	-10.7117
▁הידיים	-10.7117
▁בכדי	-10.7118
אבל	-10.712
▁ونصف	-10.7122
نق	-10.7122
حالة	-10.7123
▁القرارات	-10.7125
زام	-10.7125
قدر	-10.7126
▁אורך	-10.7127
▁פרחים	-10.7127
ائب	-10.7129
ob	-10.7133
וול	-10.7135
min	-10.7135
ياد	-10.7135
▁w	-10.7136
יבש	-10.7138
▁وإلى	-10.7139
▁תל	-10.7141
لات	-10.7141
شع	-10.7142
▁أمراض	-10.7143
▁الصناعية	-10.7143
▁הניתוח	-10.7144
الات	-10.7144
▁הרגיל	-10.7146
▁שע	-10.715
▁يجد	-10.7151
يط	-10.7151
يمي	-10.7155
ריק	-10.7156
▁Se	-10.7157
وفا	-10.716
▁תצטרך	-10.716
دّ	-10.7164
▁العدو	-10.7165
▁הסיבות	-10.7165
▁המועצה	-10.7165
▁سهلة	-10.7166
▁دراسات	-10.7166
▁בחוץ	-10.7166
▁الحرم	-10.7168
▁מושלם	-10.7169
▁שבהן	-10.717
▁وتطوير	-10.7171
▁ודא	-10.7172
▁العشرين	-10.7172
▁אמ	-10.7173
▁حامل	-10.7173
▁דומים	-10.7174
▁עיניים	-10.7174
▁الجيل	-10.7174
▁התמונות	-10.718
▁העיצוב	-10.718
▁سلطة	-10.7186
כלל	-10.7187
ولا	-10.7191
▁العادي	-10.7191
ביט	-10.7192
▁تختار	-10.7193
▁צור	-10.7195
▁لتر	-10.7196
▁תזונה	-10.7197
▁לקיים	-10.7199
▁صلة	-10.72
▁כשאתה	-10.7201
▁كلام	-10.7201
▁أراضي	-10.7202
شط	-10.7204
▁שחקן	-10.7205
▁אובמה	-10.7209
IP	-10.721
con	-10.7213
יבו	-10.7213
▁الصواريخ	-10.7215
▁ميلاد	-10.7216
▁2,	-10.7218
▁ברוסיה	-10.7219
▁مفيد	-10.7219
▁سريعة	-10.722
גרים	-10.722
▁Li	-10.7221
▁خلفية	-10.7222
▁الحمراء	-10.7222
קרא	-10.7224
▁قط	-10.7224
▁הכללי	-10.7226
▁מבנה	-10.7229
▁האירוע	-10.7231
▁מסך	-10.7232
צרות	-10.7232
▁קרקע	-10.7233
▁السياحية	-10.7233
▁الجميلة	-10.7236
▁الحدث	-10.7237
ماء	-10.7237
▁المسار	-10.7238
▁פשע	-10.724
אפ	-10.724
▁الرسوم	-10.7241
ونه	-10.7243
ركب	-10.7243
▁ور	-10.7244
▁בתו	-10.7245
▁الحديقة	-10.7245
▁דוד	-10.7245
ارد	-10.7247
قوا	-10.7249
סחר	-10.7249
ss	-10.7253
▁المرتبطة	-10.7253
▁צורה	-10.7256
▁البروتين	-10.7256
▁عم	-10.7257
▁בכיר	-10.7264
▁רגשות	-10.7265
سكي	-10.727
79	-10.7271
▁ذاته	-10.7272
▁חירום	-10.7273
ينغ	-10.7274
▁نشرت	-10.7276
▁מרגישים	-10.7277
▁مسافة	-10.7278
▁اعتماد	-10.7278
تطور	-10.728
ive	-10.7285
▁منك	-10.7286
▁قانونية	-10.7287
CA	-10.729
▁تقل	-10.7291
▁זהב	-10.7292
▁Ad	-10.7292
▁كجزء	-10.7292
▁سبعة	-10.7292
▁الذاتية	-10.7297
▁الذاكرة	-10.7301
▁המזון	-10.7301
▁العقل	-10.7302
وار	-10.7304
▁سر	-10.7304
סס	-10.7306
▁وفاة	-10.7307
▁إجراءات	-10.7307
نف	-10.7308
▁התוכן	-10.7309
▁המודרני	-10.7309
▁يقولون	-10.7313
▁הרכבת	-10.7314
-11	-10.7315
▁CD	-10.7315
▁המראה	-10.7315
موقع	-10.7316
▁فإننا	-10.7319
▁נער	-10.7322
▁السلاح	-10.7323
זור	-10.7327
▁פוליטי	-10.7327
▁מאמץ	-10.7327
▁أبناء	-10.7332
▁העולמית	-10.7332
▁العالية	-10.7334
▁المهني	-10.7335
▁לנסוע	-10.7336
רום	-10.7338
▁التأكد	-10.7338
▁הבעיות	-10.7339
▁يعرض	-10.7341
▁הבדיקה	-10.7342
ونة	-10.7343
▁طرح	-10.7345
▁אירוע	-10.7346
▁אישיים	-10.7346
▁الرسمية	-10.7346
▁הבו	-10.7347
=	-10.7348
פתי	-10.7348
▁הנכונה	-10.7349
▁التنمية	-10.7349
▁הסדר	-10.7351
אמי	-10.7351
he	-10.7352
▁הגל	-10.7353
▁تجارية	-10.7353
▁أبي	-10.7356
▁משפיע	-10.736
▁جسمك	-10.7362
▁القواعد	-10.7362
▁وفق	-10.7362
MA	-10.7362
▁المكسيك	-10.7362
▁وإدارة	-10.7363
▁الكلاب	-10.7363
▁آي	-10.7365
▁معرض	-10.7365
▁المصري	-10.7365
עניין	-10.7369
▁النووية	-10.7369
▁במאמר	-10.7371
les	-10.7371
▁تتعلق	-10.7372
ذن	-10.7372
▁أنّه	-10.7373
قابل	-10.7373
▁إيجابي	-10.7373
▁ففي	-10.7373
▁مقدم	-10.7374
▁أموال	-10.7376
▁يتعلم	-10.7376
صورة	-10.7381
▁מציג	-10.7382
94	-10.7382
▁السعودية	-10.7382
▁בסי	-10.7384
ליה	-10.7386
▁ممثل	-10.7386
غل	-10.7393
▁يقف	-10.7393
▁موقعنا	-10.7394
RE	-10.7394
רמה	-10.7397
▁الحر	-10.7398
▁يستمر	-10.7399
▁أف	-10.74
▁العقد	-10.74
▁الإجابة	-10.7402
רמת	-10.7404
عش	-10.7406
▁בהקשר	-10.7406
do	-10.7406
▁تج	-10.7407
او	-10.7407
▁נורמלי	-10.7408
منطقة	-10.7408
فس	-10.7409
▁בניית	-10.7409
▁بنك	-10.7413
▁צבעים	-10.7413
بيض	-10.7414
שלם	-10.7417
▁تعليمات	-10.7417
יטה	-10.7417
▁متجر	-10.7419
שמי	-10.7419
64	-10.7419
▁لأنهم	-10.742
▁ארץ	-10.7423
▁السرعة	-10.7424
وجد	-10.7424
▁العدد	-10.7425
حاضر	-10.7426
▁الطائرات	-10.7427
▁خبرة	-10.7428
خل	-10.7429
▁الشبكات	-10.743
ore	-10.7431
▁والف	-10.7431
▁קריירה	-10.7431
▁فرق	-10.7433
▁الكلمة	-10.7438
▁אחי	-10.7438
▁الجد	-10.744
▁مكافحة	-10.7442
▁חכם	-10.7442
▁لوس	-10.7445
ائف	-10.7445
▁המוסד	-10.7446
▁لعلاج	-10.7448
ستثمر	-10.7451
▁האר	-10.7451
▁زيت	-10.7453
▁قائد	-10.7454
▁מנוע	-10.7455
▁בתים	-10.7457
▁الاتجاه	-10.7458
▁הנהג	-10.7461
66	-10.7462
▁לומדים	-10.7462
▁כיף	-10.7463
דל	-10.7463
▁בגרמניה	-10.7463
▁ورد	-10.7464
ure	-10.7464
▁التصوير	-10.7465
עיל	-10.7466
▁ריק	-10.7467
▁السيد	-10.7467
تطلع	-10.7469
▁נאמר	-10.747
וסט	-10.7471
وضع	-10.7472
▁الشمال	-10.7473
▁מלונות	-10.7473
▁الليلة	-10.7474
▁בלעדי	-10.7475
▁לשנת	-10.7477
▁בוא	-10.7477
סקי	-10.7478
ضحك	-10.748
بحث	-10.7482
▁כשהוא	-10.7487
رغب	-10.7487
▁جهات	-10.7489
מנהיג	-10.749
▁تقليل	-10.749
▁القضية	-10.7491
▁לחבר	-10.7493
רווח	-10.7493
▁התנ	-10.7495
▁قضية	-10.7496
▁HD	-10.7498
بناء	-10.75
▁عاد	-10.7501
וור	-10.7502
▁الكو	-10.7502
ואה	-10.7503
▁التاسع	-10.7505
▁שישי	-10.7507
اعة	-10.7507
קרה	-10.7507
▁הצליח	-10.7508
▁وكما	-10.7509
▁عادي	-10.7509
لى	-10.7511
كرر	-10.7511
▁الاول	-10.7512
▁הכניסה	-10.7512
▁الأميركية	-10.7512
דבר	-10.7512
לק	-10.7514
▁الاستفادة	-10.7515
▁هام	-10.7516
▁الربيع	-10.7517
02	-10.7517
▁התואר	-10.7519
▁מוצלח	-10.752
▁ايران	-10.7522
▁1999	-10.7524
▁רשאי	-10.7524
▁فنادق	-10.7524
▁إيجابية	-10.7526
▁ضعف	-10.7526
▁حياتنا	-10.7529
בנה	-10.7531
▁مؤتمر	-10.7531
▁הלחץ	-10.7534
▁جزءا	-10.7537
▁Br	-10.7537
קוב	-10.7538
▁التنظيم	-10.7538
▁אג	-10.7539
▁עני	-10.7539
▁הפכו	-10.754
▁أطلق	-10.7541
▁המצ	-10.7542
لط	-10.7543
▁לעלות	-10.7544
▁فعلت	-10.7545
נצ	-10.7545
▁استراتيجية	-10.7546
▁مبنى	-10.7546
▁وأنت	-10.7547
שק	-10.7548
au	-10.755
عارض	-10.7552
▁קיצוני	-10.7553
▁قريب	-10.7553
▁Man	-10.7553
▁האישיים	-10.7554
▁ההת	-10.7554
▁بلغ	-10.7556
רשת	-10.7556
▁معركة	-10.7558
▁בתחומים	-10.7565
שני	-10.7568
סרט	-10.7572
▁جيش	-10.7575
ترو	-10.7575
▁فئة	-10.7576
▁الجمعة	-10.7577
▁مشاريع	-10.7578
▁واستخدام	-10.758
▁بعضهم	-10.7581
لن	-10.7581
▁الحديد	-10.7582
▁בז	-10.7584
▁فيتامين	-10.7586
▁نوعها	-10.7587
▁مطلوب	-10.7587
▁الوقود	-10.7588
▁لإجراء	-10.7588
▁הכאב	-10.759
▁جنود	-10.7593
▁חברתי	-10.7593
▁أفعل	-10.7594
▁עלי	-10.7596
▁נועד	-10.7599
▁שניים	-10.7599
ator	-10.76
EC	-10.7603
▁המשמעות	-10.7604
▁להרוג	-10.7605
ממשל	-10.7607
▁הדרושים	-10.761
▁مارك	-10.761
▁غالبًا	-10.7613
מצב	-10.7614
96	-10.7615
▁לשלום	-10.7616
ook	-10.7617
רגע	-10.7622
▁انهم	-10.7622
▁הנראה	-10.7623
▁לכלול	-10.7623
▁מועד	-10.7624
▁כלשהי	-10.7626
▁לפגוש	-10.7626
שכר	-10.7628
▁ووضع	-10.7629
▁إغلاق	-10.763
▁النظرية	-10.763
شروط	-10.7631
▁מביא	-10.7632
▁مشتركة	-10.7634
▁تدمير	-10.7636
▁להעלות	-10.7636
▁المطبخ	-10.7638
▁מתאר	-10.7639
▁استهلاك	-10.7641
▁Qu	-10.7642
▁العلوي	-10.7643
▁الجيدة	-10.7645
ina	-10.7648
▁خطير	-10.7649
ance	-10.7651
▁סול	-10.7653
زن	-10.7653
▁بير	-10.7656
▁ויטמין	-10.7657
▁מקומיים	-10.7657
▁تهدف	-10.7658
▁التن	-10.7659
▁سجل	-10.766
▁בכמה	-10.7661
▁ומס	-10.7664
▁الذهب	-10.7664
צעד	-10.7665
توقف	-10.7665
so	-10.7665
קפה	-10.7671
▁الذكية	-10.7673
are	-10.7673
▁الأخبار	-10.7674
▁محمد	-10.7674
▁l	-10.7675
▁כספי	-10.7675
▁המילים	-10.7676
47	-10.7678
▁עורכי	-10.7679
▁أقدم	-10.7679
▁اللاجئين	-10.7681
▁באוניברסיטה	-10.7682
▁الصغير	-10.7684
▁ממוצע	-10.7686
ec	-10.7686
▁מקצועית	-10.7687
▁بث	-10.769
מני	-10.7692
روا	-10.7692
תכו	-10.7697
▁הפסקת	-10.7699
▁לידה	-10.7699
5,000	-10.7701
▁מסכים	-10.7706
▁البا	-10.7707
▁הנשק	-10.7707
דעת	-10.7708
▁ובני	-10.7708
▁En	-10.7709
▁مقر	-10.7711
▁دين	-10.7712
▁توسيع	-10.7712
غني	-10.7712
▁הפרטי	-10.7713
▁لمزيد	-10.7714
מלא	-10.772
عطل	-10.7723
▁החי	-10.7723
נייה	-10.7723
▁العوامل	-10.7725
تقدم	-10.7726
end	-10.7727
▁הקרוב	-10.7727
פד	-10.7728
▁فقال	-10.7728
▁בגדים	-10.7729
ran	-10.773
▁להסתכל	-10.773
▁بطل	-10.7731
▁موظف	-10.7732
▁البنوك	-10.7733
▁ממשיך	-10.7737
▁כניסה	-10.7737
עשר	-10.7745
ומות	-10.7746
▁فما	-10.7746
▁באר	-10.7747
49	-10.7748
▁استبدال	-10.775
▁החברות	-10.7751
▁الكلية	-10.7753
רר	-10.7757
אוס	-10.7757
▁الخطة	-10.7759
42	-10.7759
▁השיניים	-10.776
▁الفعل	-10.776
▁זוכר	-10.776
che	-10.7762
▁מנהיג	-10.7766
▁المناخ	-10.7767
בנו	-10.7769
▁الاكتئاب	-10.7769
▁מיליוני	-10.777
صد	-10.777
ادات	-10.7771
▁جورج	-10.7773
▁העל	-10.7777
▁بلدي	-10.7779
▁بديل	-10.7779
ילת	-10.7782
▁My	-10.7783
▁יא	-10.7784
▁ثمن	-10.7786
▁الحرة	-10.7786
▁الكل	-10.7787
▁جهود	-10.7788
▁مساعد	-10.7789
▁شقة	-10.7791
▁الأس	-10.7794
למד	-10.7795
▁עלייה	-10.7795
▁50%	-10.7795
شرب	-10.7796
▁הצי	-10.7799
ריה	-10.7799
▁שולחן	-10.7801
▁إل	-10.7802
▁מוח	-10.7803
דיה	-10.7806
▁המזל	-10.7807
▁أسلوب	-10.7809
▁فشل	-10.781
תור	-10.7811
פעיל	-10.7813
▁החוצה	-10.7814
▁גן	-10.7814
▁הערב	-10.7815
▁فكر	-10.7815
▁الرائدة	-10.7817
▁השי	-10.7817
▁שותפים	-10.7818
▁بحلول	-10.782
▁خل	-10.7824
דיר	-10.7826
▁خذ	-10.7827
▁اللا	-10.7828
▁بعناية	-10.7828
נדו	-10.7828
▁הדלת	-10.7829
▁سحب	-10.783
▁مهنة	-10.783
▁فوائد	-10.7832
▁التطبيقات	-10.7832
▁لمساعدة	-10.7833
▁السويد	-10.7836
▁HIV	-10.7836
▁עצום	-10.7839
▁الانتظار	-10.784
רבי	-10.7841
בט	-10.7851
▁הדור	-10.7852
▁ייעוץ	-10.7854
▁המאמר	-10.7854
▁سرطان	-10.7854
▁To	-10.7856
▁לשינוי	-10.7856
▁לז	-10.7859
▁תנו	-10.7861
▁غريب	-10.7863
net	-10.7863
▁مات	-10.7863
غط	-10.7864
▁موقعك	-10.7864
▁الأمان	-10.7866
▁64	-10.7866
str	-10.7866
▁ربط	-10.7867
▁שעברה	-10.7871
▁ביד	-10.7873
פעם	-10.7875
▁مهتم	-10.7875
מונה	-10.7876
▁فسوف	-10.7876
▁دائم	-10.7876
طق	-10.7876
ואי	-10.7877
▁העניין	-10.7877
▁פוליטית	-10.7877
▁גור	-10.7878
▁השיר	-10.7878
▁הבלתי	-10.788
▁تتراوح	-10.7881
▁שמירה	-10.7881
▁واجب	-10.7882
شرح	-10.7883
خم	-10.7883
▁طالما	-10.7886
▁איתנו	-10.7888
▁القوى	-10.7888
▁מספקים	-10.7892
▁000	-10.7892
▁ذي	-10.7894
▁הקל	-10.7894
▁במאה	-10.7895
ass	-10.7898
ME	-10.7898
▁ממני	-10.7899
▁أنفسنا	-10.7899
▁حزيران	-10.7899
▁تنظيف	-10.7901
▁כלכלי	-10.7901
▁عسكري	-10.7903
▁مزيج	-10.7903
▁הנוכחית	-10.7903
יכו	-10.7907
▁جدول	-10.7907
▁אט	-10.7908
▁מחלת	-10.791
▁ואיך	-10.7911
▁צפו	-10.7911
▁وكالة	-10.7911
לן	-10.7911
כדי	-10.7912
▁השירותים	-10.7913
كوك	-10.7916
تواصل	-10.7917
▁מחזור	-10.7917
▁השק	-10.7917
▁التخلص	-10.7919
▁المعلم	-10.792
▁منا	-10.7921
▁لبنان	-10.7921
لان	-10.7924
▁نصائح	-10.7925
▁אזורי	-10.7925
كما	-10.7926
▁כדורגל	-10.7926
▁בפ	-10.7927
▁ולהת	-10.7928
▁קרן	-10.7929
ותו	-10.7931
▁החיילים	-10.7931
انا	-10.7933
يخ	-10.7935
▁بالعمل	-10.7937
נקה	-10.794
▁המיקום	-10.794
▁شارع	-10.7946
▁חיובית	-10.7947
داد	-10.7949
▁המשחקים	-10.795
▁מוגבל	-10.7952
▁مفتوح	-10.7952
▁نفعل	-10.7956
▁المباراة	-10.7958
غلق	-10.7959
▁שקורה	-10.7961
▁במו	-10.7962
MP	-10.7964
▁דוגמה	-10.7964
▁נוער	-10.7965
▁הני	-10.7967
▁قدرات	-10.7967
רכב	-10.7967
▁وحدات	-10.7971
▁המכון	-10.7974
▁قول	-10.7974
▁اكتشف	-10.7975
▁يعتقدون	-10.7976
דד	-10.7976
צבע	-10.7978
▁שהן	-10.7979
▁טעם	-10.7979
▁2)	-10.7979
▁איבד	-10.798
▁Vi	-10.7981
▁יפן	-10.7981
▁שולח	-10.7982
גדל	-10.7982
גישות	-10.7982
▁يتضمن	-10.7983
▁مادة	-10.7983
לוח	-10.7985
▁בבחירות	-10.7985
▁اختار	-10.7986
▁מאה	-10.7987
▁جهد	-10.7987
מכר	-10.7988
▁צריכת	-10.7988
▁إيقاف	-10.7989
▁تبادل	-10.7991
▁زي	-10.7992
▁لعدة	-10.7993
▁שאלוהים	-10.7994
حارب	-10.7995
زين	-10.7995
▁שקר	-10.7996
اعي	-10.7996
▁תחום	-10.7996
ev	-10.7998
יקו	-10.7998
▁נחמד	-10.7998
▁מסייע	-10.7999
▁يضع	-10.7999
▁الغربي	-10.8
▁بقية	-10.8001
כח	-10.8001
-25	-10.8002
▁ההסכם	-10.8002
▁اش	-10.8003
▁الدقيقة	-10.8003
▁כוכב	-10.8005
▁נמסר	-10.8005
▁كوب	-10.8006
▁זיהום	-10.8008
▁האלו	-10.8009
▁سبق	-10.8011
▁לשבת	-10.8012
▁رعاية	-10.8013
▁שלאחר	-10.8015
▁المد	-10.8017
تصل	-10.8019
▁حملة	-10.8021
▁تسمى	-10.8021
▁מאסטר	-10.8023
▁המקומי	-10.8024
▁تهديد	-10.8025
▁مريض	-10.8027
ולוגיה	-10.8028
▁שמאל	-10.8028
▁الرحم	-10.8031
▁أيلول	-10.8031
ome	-10.8033
قراء	-10.8035
נח	-10.8036
▁عاش	-10.8038
▁(3	-10.8038
▁نص	-10.8042
صال	-10.8042
▁להחליט	-10.8042
▁הצל	-10.8042
فار	-10.8045
خطط	-10.8045
mm	-10.8046
باح	-10.8046
▁اتباع	-10.8046
.“	-10.8048
▁וניהול	-10.8049
▁ישירה	-10.805
▁توفي	-10.8052
▁לדאוג	-10.8057
רגל	-10.8058
مول	-10.8058
▁מילה	-10.8063
▁والحصول	-10.8065
▁Ba	-10.8066
▁ללקוחות	-10.8067
▁أثر	-10.8069
▁להאמין	-10.8072
▁خطوط	-10.8074
▁عادية	-10.8076
נש	-10.8077
IT	-10.8077
tic	-10.8079
▁الورق	-10.8081
▁كاليفورنيا	-10.8084
▁لس	-10.8085
يرا	-10.8086
▁أعلم	-10.8086
▁הבריטי	-10.8088
▁עתה	-10.809
بح	-10.809
▁خطاب	-10.8091
לר	-10.8091
▁CO	-10.8092
▁שלושת	-10.8092
▁לבחון	-10.8093
▁أمور	-10.8094
مات	-10.8095
▁דג	-10.8096
▁ולקבל	-10.8096
▁الطوارئ	-10.8096
▁شديد	-10.8096
למשל	-10.8097
شارك	-10.8097
▁פלסטיני	-10.8097
▁סכום	-10.8098
سين	-10.8099
▁אח	-10.8099
▁תחילה	-10.8101
▁باب	-10.8101
▁איי	-10.8101
ניו	-10.8102
▁ولو	-10.8102
▁السل	-10.8105
▁שישראל	-10.8105
▁دع	-10.8105
▁وقعت	-10.8107
▁דוח	-10.8107
▁וכיצד	-10.811
ئة	-10.8112
▁זיכרון	-10.8114
▁בתוכנית	-10.8118
US	-10.8119
ash	-10.8119
▁الأو	-10.8119
ספו	-10.812
▁שזו	-10.8123
1)	-10.8124
▁גבוהות	-10.8126
▁רמה	-10.8127
▁العميل	-10.8128
▁הקטן	-10.8129
وحدة	-10.813
83	-10.813
يني	-10.8131
▁הול	-10.8132
▁מותו	-10.8134
ft	-10.8135
▁לונדון	-10.8138
▁للاستخدام	-10.8139
▁سانت	-10.814
▁השינויים	-10.814
▁להתמקד	-10.8143
עזר	-10.8144
▁أدناه	-10.8144
קאי	-10.8146
▁בפרט	-10.8147
▁השינוי	-10.8147
▁חמ	-10.8147
▁بشدة	-10.8148
▁الطقس	-10.8151
▁הכנסייה	-10.8152
▁طعام	-10.8154
▁المستمر	-10.8155
▁العكس	-10.8158
az	-10.8158
▁مسؤولية	-10.8158
▁الأسماك	-10.8158
נשים	-10.8161
▁خلاف	-10.8163
▁يدخل	-10.8164
▁يحبون	-10.8165
▁הצבע	-10.8165
vo	-10.8165
امي	-10.8166
▁מוסיקה	-10.8168
▁ממו	-10.8168
ילות	-10.8169
פנו	-10.8175
▁2017).	-10.8176
▁تتضمن	-10.8178
▁خصائص	-10.8179
▁הבעלים	-10.818
dy	-10.8181
▁الفوز	-10.8181
▁חשבונות	-10.8183
▁عامين	-10.8184
▁تفكر	-10.8185
▁تموز	-10.8188
▁הספורט	-10.8189
▁نقول	-10.819
شغل	-10.8191
▁ועדת	-10.8191
▁شو	-10.8192
▁הינו	-10.8196
▁וול	-10.8196
בלי	-10.8197
▁iPhone	-10.8197
▁משותפת	-10.8198
▁המשטר	-10.8199
قاتل	-10.82
▁ضرب	-10.8202
קני	-10.8205
▁قابل	-10.8206
حذر	-10.8206
▁עומדים	-10.8206
▁שתוכל	-10.8209
▁האהוב	-10.8213
▁الجنوب	-10.8215
زيل	-10.8216
▁المسرح	-10.8217
▁בקיץ	-10.8217
▁الدموية	-10.8217
טרי	-10.8219
▁التع	-10.822
▁למשוך	-10.8223
▁عظيم	-10.8224
طو	-10.8227
pl	-10.8228
▁سار	-10.8228
▁נוסעים	-10.8228
▁تحول	-10.8229
تح	-10.8229
▁חשב	-10.8232
תקן	-10.8232
57	-10.8232
▁תקציב	-10.8232
ركز	-10.8234
▁مخاطر	-10.8236
▁שיכולים	-10.8241
▁تضع	-10.8241
نتج	-10.8244
▁המד	-10.8245
נוע	-10.8245
ليك	-10.8246
▁دار	-10.8246
▁يتمكن	-10.8247
▁الاس	-10.8247
▁(2)	-10.8249
▁رئيسي	-10.825
ريب	-10.825
▁ריכוז	-10.8251
▁להיפטר	-10.8255
رقة	-10.8257
▁המשרד	-10.8258
דרך	-10.8259
ue	-10.8259
▁מוזיאון	-10.826
עריכה	-10.826
▁المقبلة	-10.8261
▁הוראה	-10.8264
▁ציין	-10.8264
$	-10.8266
▁برا	-10.8267
▁קצב	-10.8267
▁המשו	-10.8267
اعت	-10.8268
▁נתן	-10.8268
▁الرائعة	-10.8273
▁سورية	-10.8273
▁פגיעה	-10.8273
▁عين	-10.8273
▁وجميع	-10.8275
▁אנ	-10.8277
CS	-10.8277
שנים	-10.8278
طع	-10.8278
▁كندا	-10.8279
تسل	-10.828
▁משל	-10.8282
▁حظر	-10.8282
▁דלק	-10.8283
▁كيلومتر	-10.8283
▁הצבאית	-10.8284
▁تي	-10.8284
▁בתפקיד	-10.8284
sk	-10.8286
▁الإصدار	-10.8286
▁אושר	-10.8287
▁לגדול	-10.8287
▁العراق	-10.8289
si	-10.829
▁متن	-10.829
▁النصف	-10.8291
▁تخ	-10.8292
▁يمر	-10.8293
▁לנצל	-10.8293
▁الصيد	-10.8293
▁الباحثون	-10.8295
▁והש	-10.8295
▁בעצמך	-10.8298
800	-10.8299
אושר	-10.8303
Google	-10.8304
▁השת	-10.8305
חיות	-10.8306
iz	-10.831
כבד	-10.8311
▁المالي	-10.8312
▁העו	-10.8313
مركز	-10.8313
92	-10.8315
▁המא	-10.8317
▁ואולי	-10.832
▁عالمية	-10.832
ספ	-10.8321
ندي	-10.8322
▁גבי	-10.8322
▁ضع	-10.8323
באנגלית	-10.8326
▁الخير	-10.8328
ومي	-10.833
▁מייצג	-10.8332
▁הרש	-10.8334
▁נור	-10.8335
▁إيجاد	-10.8335
ya	-10.8336
פרץ	-10.8336
שמח	-10.8339
▁בקשר	-10.834
98	-10.8341
بنى	-10.8342
▁ولهذا	-10.8343
▁v	-10.8344
مون	-10.8344
▁القوانين	-10.8345
▁صحي	-10.8345
ko	-10.8347
▁!!	-10.8348
▁يموت	-10.835
▁حذف	-10.835
גלו	-10.8351
▁جندي	-10.8352
▁تملك	-10.8352
باك	-10.8353
▁נעים	-10.8353
פרס	-10.8353
▁סטודנט	-10.8353
مور	-10.8353
▁בהיר	-10.8354
▁زر	-10.8354
▁باستثناء	-10.8356
قاطع	-10.836
▁تفسير	-10.836
▁قرية	-10.8362
ولد	-10.8363
روم	-10.8364
▁فعلا	-10.8364
▁السعادة	-10.8365
▁الفم	-10.8366
▁לחכות	-10.8368
▁ورقة	-10.8368
▁תעופה	-10.8369
ock	-10.8369
▁قرارات	-10.837
2.	-10.8372
מרכז	-10.8372
▁النفسي	-10.8373
طالب	-10.8373
كة	-10.8377
رافق	-10.8379
نش	-10.8381
▁تمر	-10.8381
▁ברצינות	-10.8383
▁تقسيم	-10.8384
صناع	-10.8385
▁שפת	-10.8385
▁الاسبوع	-10.8387
▁פייסבוק	-10.8387
▁הרגע	-10.8388
▁ערכים	-10.8388
▁המסע	-10.8389
▁الصحيحة	-10.839
▁עצמנו	-10.8391
▁مجلة	-10.8393
▁مم	-10.8394
▁هرمون	-10.8395
▁תינוקות	-10.8395
▁بمساعدة	-10.8396
▁הלו	-10.8397
▁خلالها	-10.8398
▁רשות	-10.8398
▁ثالث	-10.8399
وص	-10.84
▁הצער	-10.8407
▁להחזיק	-10.8407
▁العلامة	-10.8408
▁نستخدم	-10.8408
▁كسب	-10.8408
رّ	-10.8408
هات	-10.841
זן	-10.8412
▁سماع	-10.8414
▁המשתתפים	-10.8414
מקום	-10.8415
▁זמנית	-10.8416
▁مثالي	-10.8417
za	-10.8417
▁لتجنب	-10.8417
▁להתקין	-10.8418
מרים	-10.8418
▁قرب	-10.8418
ترجم	-10.8419
▁بطاقات	-10.8419
واء	-10.8419
▁בולט	-10.8423
▁המון	-10.8423
▁تأسيس	-10.8425
تأكد	-10.8429
▁עשיר	-10.843
▁העונה	-10.8431
▁تكوين	-10.8432
▁وتت	-10.8433
▁يرغب	-10.8434
שום	-10.8435
▁الوعي	-10.8436
▁וכמה	-10.8437
ארצות	-10.8437
تقد	-10.844
▁ويقول	-10.8442
▁محدودة	-10.8442
▁Di	-10.8442
▁مصير	-10.8445
רדו	-10.8446
▁הגיעה	-10.8446
▁44	-10.8447
▁החשמל	-10.8448
▁לתרום	-10.8448
▁أك	-10.8449
▁المبلغ	-10.845
▁מעוניין	-10.8451
▁للق	-10.8452
רכיב	-10.8452
▁הבי	-10.8453
▁القومي	-10.8453
קן	-10.8454
סדר	-10.8455
▁أردت	-10.8456
▁טור	-10.8457
▁War	-10.8458
▁הדרוש	-10.8459
לקח	-10.8459
سود	-10.846
▁שמה	-10.846
▁الفكرة	-10.846
▁للبحث	-10.8462
قف	-10.8464
▁הופיע	-10.8465
▁10%	-10.8467
▁الفتاة	-10.847
▁להר	-10.847
▁الأشهر	-10.8471
בוגר	-10.8471
▁مي	-10.8473
طرح	-10.8474
46	-10.8475
▁إد	-10.8476
ger	-10.8477
▁أجريت	-10.8477
▁مثير	-10.8477
);	-10.8479
▁المركزي	-10.848
▁بالإ	-10.8485
ms	-10.8485
▁البيض	-10.8486
סמים	-10.8486
▁להשאיר	-10.8488
▁נתקל	-10.8489
▁الملكية	-10.8489
גברים	-10.8489
צרפת	-10.849
▁סוד	-10.8494
▁بشر	-10.8497
▁מפורט	-10.8497
▁تبين	-10.85
▁שומר	-10.85
קלט	-10.8503
▁זמני	-10.8504
شق	-10.8504
▁בחור	-10.8505
ox	-10.8506
▁أصيب	-10.8506
ؤثر	-10.8507
▁تحرير	-10.8507
▁הישראלים	-10.8507
يري	-10.8508
▁בקבוק	-10.851
▁הכיבוש	-10.8511
▁שלהן	-10.8511
בחן	-10.8512
▁مظهر	-10.8514
▁أصدقاء	-10.8514
פנים	-10.8515
▁يتعين	-10.8515
فاعل	-10.8516
AM	-10.8516
سان	-10.8516
▁החדשים	-10.8517
كِ	-10.8519
▁ويمكنك	-10.852
וטו	-10.852
▁39	-10.8521
▁תעשיית	-10.8526
سحب	-10.8526
▁הקהל	-10.8527
يعة	-10.8527
▁1998	-10.8527
▁להופיע	-10.853
▁שהופך	-10.853
▁הסוכר	-10.853
▁السي	-10.8531
▁תיקון	-10.8533
▁بدوام	-10.8538
▁בערב	-10.8538
▁לאט	-10.8538
▁تفهم	-10.8539
▁הסת	-10.8543
▁מסוכן	-10.8543
▁החלטת	-10.8547
▁אורח	-10.8548
▁المباني	-10.8549
▁الخلفية	-10.8549
▁קח	-10.8549
▁חיצוני	-10.855
בלים	-10.8553
▁Cl	-10.8553
▁שמי	-10.8553
▁ציבורית	-10.8554
IN	-10.8554
ليم	-10.8554
▁اب	-10.8555
▁השד	-10.8555
▁מוגדר	-10.8558
حرق	-10.8559
▁מיום	-10.8559
▁أظهرت	-10.8561
▁لأنك	-10.8562
حتاج	-10.8564
ורו	-10.8564
▁יוני	-10.8564
▁משפטי	-10.8567
שנה	-10.8567
▁الأرقام	-10.857
▁التوتر	-10.8571
ُل	-10.8571
▁قوله	-10.8576
▁الرؤية	-10.8577
▁לקרות	-10.8578
▁הידוע	-10.8578
▁أخبار	-10.858
▁الأجانب	-10.8581
▁שנית	-10.8583
▁تسليم	-10.8583
▁יעילות	-10.8584
رسم	-10.8584
▁جسد	-10.8588
IC	-10.8589
▁جل	-10.8593
▁תקבל	-10.8594
my	-10.8594
▁التر	-10.8595
▁المحتملة	-10.8596
קנים	-10.8596
▁والده	-10.8598
▁شبه	-10.8599
▁מגע	-10.86
▁נייד	-10.8601
▁مشاعر	-10.8602
▁הערכה	-10.8602
זמנו	-10.8604
▁חברתיות	-10.8604
▁הרוסית	-10.8605
נשיא	-10.8606
▁لبناء	-10.8608
bu	-10.8608
ُم	-10.8608
▁הרע	-10.8609
▁קזינו	-10.861
باني	-10.8612
▁בעניין	-10.8612
▁אמון	-10.8612
▁החזק	-10.8613
شك	-10.8614
▁הפרס	-10.8616
▁تطلب	-10.862
▁بخصوص	-10.8621
▁בעלת	-10.8624
▁أعلنت	-10.8625
גדר	-10.8626
▁أمان	-10.8627
▁أرى	-10.8627
▁רלוונטי	-10.8629
▁ثمانية	-10.8629
▁נוחות	-10.863
▁بلدان	-10.8632
ّت	-10.8634
חש	-10.8637
ופר	-10.8638
▁השחור	-10.8638
اكس	-10.864
▁النحو	-10.864
▁משא	-10.8641
▁أحداث	-10.8642
▁قناة	-10.8644
▁الكفاية	-10.8644
▁מרבית	-10.8645
▁تقرر	-10.8647
بيع	-10.8649
▁الآباء	-10.8652
כמה	-10.8652
פיה	-10.8652
▁حسن	-10.8653
▁الأميركي	-10.8653
كب	-10.8654
دول	-10.8654
▁المضادة	-10.8656
▁האמנות	-10.8657
▁בשעות	-10.8657
▁החברתית	-10.8658
מחשב	-10.8659
تجار	-10.8659
▁التوجه	-10.866
▁استمرار	-10.866
▁מצו	-10.8661
▁الجليد	-10.8663
لد	-10.8663
מזרח	-10.8664
אח	-10.8664
▁القضاء	-10.8664
כונן	-10.8664
▁אמו	-10.8666
▁דור	-10.8667
▁الحمام	-10.8667
فترض	-10.8668
▁تصوير	-10.8671
▁מיי	-10.8671
▁جوهر	-10.8672
▁מסמכים	-10.8673
كوم	-10.8673
طابق	-10.8678
نك	-10.8678
حا	-10.8678
▁לאן	-10.8679
▁חולה	-10.8679
▁ומג	-10.8679
باط	-10.868
[1]	-10.8681
▁الأخ	-10.8683
▁בהכרח	-10.8685
ענו	-10.8686
פלסטינים	-10.8687
▁תושבים	-10.8687
▁المؤتمر	-10.8688
שתי	-10.8689
ארד	-10.8689
▁جزءًا	-10.8689
قا	-10.869
[2]	-10.869
عامل	-10.8691
▁السرير	-10.8693
▁נוטים	-10.8693
▁השטן	-10.8694
قدّم	-10.8694
▁ليسوا	-10.8696
▁وتحسين	-10.8696
▁البو	-10.8697
طبق	-10.8698
hi	-10.8698
▁استعادة	-10.8699
▁للعب	-10.87
▁המבצע	-10.8701
▁السّ	-10.8702
▁مطلق	-10.8702
خير	-10.8702
OR	-10.8703
▁تتحدث	-10.8703
تغير	-10.8704
▁مراكز	-10.8704
▁عملك	-10.8705
ילו	-10.8706
נאי	-10.8708
CO	-10.871
▁تدفق	-10.871
▁מחוז	-10.871
سيل	-10.8712
▁Web	-10.8712
▁المستحيل	-10.8714
▁ערבים	-10.8716
▁أجر	-10.8716
▁المقال	-10.8717
ילים	-10.8719
▁ثقافة	-10.8719
▁הנייד	-10.8719
▁צודק	-10.8722
▁צר	-10.8723
ינות	-10.8724
ish	-10.8725
▁المفاوضات	-10.8725
▁המע	-10.8726
ino	-10.8726
▁بيد	-10.8726
▁שט	-10.8727
▁פולי	-10.8728
וקים	-10.8728
▁لتوفير	-10.8729
▁הכביש	-10.8732
פרד	-10.8733
▁עברו	-10.8734
▁بدا	-10.8735
ِي	-10.8735
כנה	-10.8736
▁الأهداف	-10.8736
▁נורא	-10.8736
▁יס	-10.8736
וטר	-10.8737
▁משם	-10.8737
▁מקרי	-10.8741
▁לחו	-10.8741
ستقبل	-10.8744
68	-10.8745
▁המעסיק	-10.8746
LA	-10.8751
▁דל	-10.8751
▁يمكنها	-10.8752
▁بيل	-10.8753
600	-10.8755
▁להרחיב	-10.8756
▁تنتج	-10.8757
▁المعالم	-10.8757
صيب	-10.8757
צפון	-10.8758
סול	-10.8759
▁היהודית	-10.8759
43	-10.876
▁מבני	-10.8762
▁متزايد	-10.8763
عادة	-10.8763
▁اعتقال	-10.8765
▁אגב	-10.8765
▁כלב	-10.8771
▁(18	-10.8771
▁متاحة	-10.8771
▁שיטה	-10.8773
▁مفتاح	-10.8774
▁המקומית	-10.8775
אף	-10.8776
▁חלבון	-10.8778
ברו	-10.8779
▁המין	-10.8779
كتاب	-10.8779
-50	-10.878
▁شاشة	-10.8781
▁الكا	-10.8781
▁وق	-10.8781
▁موسم	-10.8781
▁בשירות	-10.8782
▁النجوم	-10.8783
מערב	-10.8785
زع	-10.8786
جميع	-10.8786
▁رائحة	-10.879
▁הטלוויזיה	-10.8791
▁השלישית	-10.8791
سكو	-10.8793
▁בטח	-10.8793
ישו	-10.8798
▁בט	-10.8798
▁-19	-10.8798
▁انتظار	-10.8798
▁Access	-10.8799
▁الغرض	-10.88
▁יעילה	-10.88
بيان	-10.8801
▁הפיתוח	-10.8801
▁ספ	-10.8802
אחד	-10.8802
صن	-10.8806
▁الزهور	-10.8807
▁הדרכים	-10.8811
▁المتقدمة	-10.8812
מיה	-10.8817
▁חלקית	-10.8818
▁סקס	-10.8818
مكان	-10.8822
▁قدمت	-10.8822
קח	-10.8823
▁המנהל	-10.8824
انغ	-10.8828
▁برج	-10.8829
▁لكنني	-10.883
▁אזורים	-10.8831
▁1990	-10.8832
פרט	-10.8833
دعم	-10.8834
▁שמור	-10.8834
אול	-10.8841
▁למספר	-10.8845
ign	-10.8847
▁قيام	-10.885
פוק	-10.8852
qu	-10.8852
ذو	-10.8853
▁اللقاء	-10.8855
▁السبت	-10.8855
▁يتوقف	-10.8856
▁تتعلم	-10.8858
▁لشركة	-10.8859
▁البالغين	-10.8859
עקב	-10.886
▁التوقف	-10.8861
▁توزيع	-10.8862
▁ברמת	-10.8863
שלח	-10.8864
▁בטלפון	-10.8865
وعة	-10.8869
BC	-10.8869
▁בדבר	-10.887
▁הנפט	-10.887
▁صفحات	-10.8871
-13	-10.8874
حساس	-10.8875
▁السوداء	-10.8878
bl	-10.8878
▁שנו	-10.8881
حرص	-10.8881
▁רעב	-10.8882
▁الخامس	-10.8883
▁أحيانا	-10.8883
קטור	-10.8883
▁شاب	-10.8884
غم	-10.8886
▁מועצת	-10.8887
▁תג	-10.8887
▁מלך	-10.8887
TP	-10.8888
▁פועלת	-10.8889
ריא	-10.889
▁בחירות	-10.889
▁הפנ	-10.8891
▁ללמד	-10.8895
▁הניסוי	-10.8896
▁اسمه	-10.8896
▁ובין	-10.8896
▁انتقل	-10.8897
▁תור	-10.8898
▁فور	-10.89
▁أعقاب	-10.89
▁ב־	-10.8903
▁سبع	-10.8904
لاء	-10.8904
▁الشعبية	-10.8907
▁המק	-10.8907
▁عودة	-10.8908
▁מתוק	-10.891
פץ	-10.8913
▁الانسان	-10.8913
كامل	-10.8913
▁פוגע	-10.8914
זכור	-10.8914
גבר	-10.8915
▁مؤسسات	-10.8916
ونها	-10.8917
▁Ha	-10.8917
▁לשרת	-10.8918
▁المهنيين	-10.8918
▁لح	-10.8922
▁متاح	-10.8927
▁נהרג	-10.8928
▁سام	-10.893
▁تمنح	-10.893
▁מאת	-10.8931
▁مستعد	-10.8932
מדו	-10.8933
▁השפעת	-10.8935
▁المقابل	-10.8935
▁مور	-10.8935
אמנים	-10.8936
▁القتل	-10.8938
شمل	-10.8938
▁وإنما	-10.8939
غسل	-10.8942
▁School	-10.8944
איור	-10.8944
▁كسر	-10.8945
نزل	-10.8946
▁هامة	-10.8946
▁לסיים	-10.8947
▁الجمع	-10.8947
▁בטיפול	-10.8948
▁ההפעלה	-10.8951
▁وكنت	-10.8952
▁اللي	-10.8952
▁دائرة	-10.8952
ans	-10.8954
▁תקווה	-10.8962
▁מנהיגים	-10.8963
▁בטוחה	-10.8963
فخر	-10.8964
sc	-10.8964
نمو	-10.8965
▁שתו	-10.897
▁الذاتي	-10.897
▁800	-10.897
▁טעות	-10.8971
▁להשקיע	-10.8971
▁المحمول	-10.8973
شرك	-10.8973
שמו	-10.8977
דרום	-10.8977
עבודה	-10.898
▁شعرت	-10.8982
زيد	-10.8985
▁הכו	-10.8986
▁عملي	-10.8986
▁One	-10.8988
רך	-10.8988
ابة	-10.8989
▁השלב	-10.8989
▁מדענים	-10.8992
▁لتعزيز	-10.8992
▁קבל	-10.8993
▁יעד	-10.8993
▁للتعليم	-10.8995
▁מבחן	-10.8996
▁לגוף	-10.8996
▁الثقافية	-10.8997
ميزان	-10.8998
▁טכנולוגיות	-10.9
▁קשרים	-10.9
ach	-10.9
▁תכנון	-10.9001
ره	-10.9001
ונס	-10.9003
▁בעד	-10.9003
▁مؤخرا	-10.9006
فكر	-10.9007
▁يتغير	-10.9009
המ	-10.9012
▁להזמין	-10.9014
בוש	-10.9014
▁רופאים	-10.9014
ونات	-10.9015
▁سوء	-10.9015
▁الخلية	-10.9016
▁לעיל	-10.9016
▁תע	-10.9017
▁المبنى	-10.9019
▁ברזל	-10.9022
ناه	-10.9022
▁הכללית	-10.9023
▁المستوطنات	-10.9023
▁עבודות	-10.9024
יפת	-10.9024
▁בתנאים	-10.9025
▁الضرر	-10.9027
TA	-10.9029
מחיר	-10.903
▁ריח	-10.9034
▁ייחודית	-10.9035
▁للتأكد	-10.9037
▁קווי	-10.9038
▁مطالب	-10.9038
شعب	-10.9039
▁תנועת	-10.904
▁אליך	-10.9041
▁كثيرًا	-10.9041
▁המוסלמים	-10.9043
▁نت	-10.9043
▁בינתיים	-10.9044
▁الأمل	-10.9044
▁במילים	-10.9046
ائنا	-10.9051
▁التطور	-10.9051
▁نعيش	-10.9053
▁الثمن	-10.9054
ستن	-10.9054
▁השחקנים	-10.9055
דום	-10.9055
▁המאפשר	-10.9057
אלו	-10.9059
▁בדרכים	-10.9059
עצב	-10.906
▁قص	-10.9062
▁مهما	-10.9062
فيل	-10.9063
▁وَ	-10.9063
▁المؤ	-10.9063
▁בהרבה	-10.9064
بلغ	-10.9065
▁قادرين	-10.9066
▁تعليق	-10.9066
▁سهل	-10.9066
▁והו	-10.9068
لق	-10.9068
▁الموجود	-10.9069
▁موت	-10.9071
▁הירח	-10.9072
▁הודות	-10.9074
▁نيسان	-10.9075
فد	-10.9076
▁انتهاء	-10.9076
▁الأطراف	-10.9079
▁בתגובה	-10.9079
▁נסה	-10.908
▁الخارجي	-10.9081
▁חזקים	-10.9081
▁[[	-10.9081
▁اتصل	-10.9083
نعم	-10.9084
▁جولة	-10.9084
act	-10.9084
▁עסקיים	-10.9087
▁ליישם	-10.9087
▁للأشخاص	-10.9087
זוג	-10.9087
▁מכלל	-10.9089
▁الفردية	-10.909
▁ללבוש	-10.9091
▁ופיתוח	-10.9091
▁כפול	-10.9092
▁التغذية	-10.9093
▁لشخص	-10.9095
▁הכנסת	-10.9095
▁דוגמאות	-10.9096
عتمد	-10.9096
▁הבל	-10.9097
▁פעילים	-10.9098
זיה	-10.91
حترم	-10.9103
▁סובלים	-10.9103
▁כרטיסי	-10.9104
▁قطر	-10.9105
▁مب	-10.9105
▁جمعية	-10.9107
▁الأوقات	-10.9108
עימות	-10.9108
▁להיראות	-10.9111
▁بعدم	-10.9111
بع	-10.9113
▁הפיננסי	-10.9115
▁קלאסי	-10.9115
▁מנהיגות	-10.9116
▁ينتهي	-10.9116
MI	-10.9117
▁Pre	-10.9117
▁المقدمة	-10.9119
ארו	-10.9119
▁מטוס	-10.9127
▁לוואי	-10.9127
קטע	-10.9128
▁פתאום	-10.9131
▁צורות	-10.9132
▁לתפוס	-10.9133
סטון	-10.9133
▁النهائية	-10.9134
-21	-10.9135
▁תלמיד	-10.9135
▁تزويد	-10.9135
▁הגורמים	-10.9137
ذي	-10.9138
كشف	-10.9138
حال	-10.9138
LE	-10.9139
تعاون	-10.9141
▁الجمال	-10.9142
▁עקרונות	-10.9142
▁اقت	-10.9143
ظلم	-10.9147
חלוק	-10.9147
▁עסקי	-10.915
▁בסגנון	-10.915
▁בשתי	-10.915
▁המאבק	-10.915
tor	-10.9156
▁מיועד	-10.9157
▁בכוח	-10.9157
▁העין	-10.9158
▁תגית	-10.9161
▁ההודעה	-10.9162
▁ביל	-10.9162
▁تركز	-10.9162
▁הימורים	-10.9164
▁רשמית	-10.9165
▁ערבי	-10.9165
▁الدراسي	-10.9166
▁הניסיון	-10.917
תרבות	-10.9171
علن	-10.9171
▁מצאו	-10.9171
▁החשובים	-10.9174
▁קיבלו	-10.9174
▁معلم	-10.9174
▁اتفاقية	-10.9175
▁تتيح	-10.9177
נטה	-10.9177
▁الرو	-10.9178
▁מעקב	-10.9178
▁משך	-10.9178
حيا	-10.9179
▁الشاب	-10.9179
▁iOS	-10.918
ציפי	-10.918
▁الشاطئ	-10.9181
▁Na	-10.9182
وض	-10.9183
▁התקופה	-10.9183
▁النفسية	-10.9183
نقل	-10.9187
NA	-10.919
▁בפיתוח	-10.919
▁أبحاث	-10.9191
אתר	-10.9192
▁الأعضاء	-10.9193
▁الاستمرار	-10.9194
mer	-10.9195
▁להגיב	-10.9195
▁بأنّ	-10.9197
▁תחנת	-10.9197
كسر	-10.9199
ريف	-10.9201
عرب	-10.9204
▁משימה	-10.9204
▁الفنية	-10.9207
▁בינוני	-10.9208
▁وهنا	-10.9208
ריאל	-10.9208
▁דירה	-10.9208
▁لحل	-10.9209
▁ذ	-10.9211
▁لدراسة	-10.9212
▁נקי	-10.9214
▁للع	-10.9214
▁النقطة	-10.9215
▁بالغ	-10.9216
▁שחרור	-10.922
▁قريبا	-10.9221
able	-10.9221
عق	-10.9222
▁حسابات	-10.9223
▁נמנע	-10.9223
صعد	-10.9224
▁הארי	-10.9225
צבא	-10.9227
▁الأخطاء	-10.9227
אמת	-10.9228
▁הפס	-10.9228
▁נפש	-10.9228
ربي	-10.923
▁איום	-10.923
▁الفائدة	-10.9232
▁الأقصى	-10.9232
סביר	-10.9233
▁המיוחד	-10.9234
▁PayPal	-10.9236
عزل	-10.9236
▁השלטון	-10.9239
▁טופס	-10.9242
▁והא	-10.9243
▁הדי	-10.9244
▁نوم	-10.9244
▁הפליטים	-10.9244
▁World	-10.9245
▁الممارسة	-10.9247
▁מזכיר	-10.9248
▁نستطيع	-10.9248
▁תס	-10.9249
חנות	-10.925
▁הקשורות	-10.9251
▁والاست	-10.9252
iv	-10.9253
האם	-10.9255
▁מתכוון	-10.9257
אצ	-10.926
طائر	-10.926
▁מאזן	-10.926
فعال	-10.9261
▁מטבע	-10.9261
يلا	-10.9262
▁ابحث	-10.9264
תך	-10.9265
▁سباق	-10.9266
▁تدعم	-10.9268
▁للحياة	-10.9269
▁בגין	-10.9271
انات	-10.9271
▁בוגר	-10.9273
▁מטוסים	-10.9275
▁לניהול	-10.9276
▁(4	-10.9278
▁לעיר	-10.9279
▁שבעה	-10.9281
▁علاوة	-10.9281
تكم	-10.9281
ספיר	-10.9282
▁אישיות	-10.9283
▁הקורס	-10.9283
▁زمن	-10.9284
lan	-10.9287
▁תלמידי	-10.9287
▁He	-10.9288
▁وقع	-10.9288
▁דק	-10.9288
▁בשדה	-10.9289
▁درس	-10.9289
רכו	-10.929
▁مه	-10.929
▁פארק	-10.9292
▁الشهيرة	-10.9293
צילום	-10.9293
התחל	-10.9294
▁توافق	-10.9294
▁זכה	-10.9294
▁מצליח	-10.9294
▁خفض	-10.9295
▁تتغير	-10.9295
ثور	-10.9295
▁Ne	-10.9295
▁חשבתי	-10.9295
▁إثارة	-10.9296
קא	-10.9297
▁للنساء	-10.9297
▁تستحق	-10.9298
שמש	-10.9299
▁TV	-10.93
רגשות	-10.9302
ובה	-10.9303
▁وأنها	-10.9303
▁نساء	-10.9307
وتو	-10.9309
פג	-10.931
اذ	-10.9311
נין	-10.9311
▁דת	-10.9312
▁רצח	-10.9313
▁במגוון	-10.9314
▁App	-10.9314
41	-10.9314
▁יאפשר	-10.9315
▁הרפובליקה	-10.9316
▁دمج	-10.9317
▁نحتاج	-10.9317
▁בתנאי	-10.9317
راس	-10.9321
خلاص	-10.9322
▁נותר	-10.9322
▁ההיסטורי	-10.9322
▁חוש	-10.9323
▁التق	-10.9324
▁Server	-10.9326
▁قابلة	-10.9326
▁دولي	-10.9326
▁הצליחו	-10.9326
IM	-10.9327
▁المساء	-10.9327
מנת	-10.9328
▁עובדת	-10.933
هار	-10.933
▁נלקח	-10.9334
▁המשא	-10.9334
طفل	-10.9338
סין	-10.9338
▁הלאה	-10.934
▁מפעל	-10.934
חוש	-10.9341
▁تسعى	-10.9341
▁מסביב	-10.9341
▁הצעות	-10.9342
▁استمر	-10.9342
ציל	-10.9342
▁يختلف	-10.9342
▁ועכשיו	-10.9345
יקי	-10.9346
▁הסבר	-10.9346
▁بوضوح	-10.9346
נוסח	-10.9347
סיבי	-10.9347
▁يهودي	-10.935
▁الطيور	-10.935
▁מנהלי	-10.9354
▁מתחילה	-10.9356
▁מתרחש	-10.9358
▁התקדמות	-10.9359
:30	-10.9363
▁الأرجح	-10.9363
▁تنزيل	-10.9364
الا	-10.9365
▁משטח	-10.9365
قود	-10.937
▁משלוח	-10.9371
تكلم	-10.9372
يها	-10.9373
▁דולרים	-10.9373
יזה	-10.9374
קלי	-10.9375
▁نهج	-10.9376
▁משאבים	-10.9377
▁والدي	-10.9379
▁الأولية	-10.9379
مام	-10.9379
سط	-10.9379
yl	-10.9381
عندما	-10.9382
▁فسي	-10.9382
اقت	-10.9383
▁הודו	-10.9385
صرف	-10.9385
▁בתקופת	-10.9387
▁مقابلة	-10.9387
76	-10.9387
▁בטווח	-10.9388
▁לחדר	-10.939
▁جبل	-10.939
جور	-10.9392
יתי	-10.9392
▁الوحدة	-10.9395
▁חומרי	-10.9396
עניק	-10.9396
ea	-10.94
▁الإضافية	-10.9401
ساعد	-10.9403
▁קיימות	-10.9404
▁נראים	-10.9405
▁Facebook	-10.9405
▁מכירה	-10.9406
▁חלקם	-10.9406
▁בהתחלה	-10.9408
▁al	-10.9409
حول	-10.9409
ـــ	-10.9414
▁החומרים	-10.9415
▁רחוב	-10.9417
▁אביו	-10.9419
▁ובה	-10.9419
59	-10.9419
▁להן	-10.942
-40	-10.9422
▁وكيفية	-10.9423
▁רשתות	-10.9423
بوت	-10.9423
▁اليونان	-10.9424
▁לנקוט	-10.9425
▁הרצון	-10.9426
▁علماء	-10.9428
קש	-10.9428
قس	-10.9428
▁לשאת	-10.9429
ضح	-10.9429
▁مصاب	-10.9429
▁לרופא	-10.943
▁קידום	-10.943
▁المنزلية	-10.943
▁Android	-10.9432
▁عالي	-10.9434
▁הצעת	-10.9437
וקר	-10.9438
▁متابعة	-10.9439
▁כוס	-10.9441
▁المساواة	-10.9441
▁בעזה	-10.9441
du	-10.9443
▁الموافقة	-10.9443
tri	-10.9444
▁وعلاوة	-10.9445
חשוב	-10.9445
▁ממשיכים	-10.9445
ten	-10.9446
▁تقنيات	-10.9448
▁אמיתיים	-10.9448
▁مؤهل	-10.9448
▁الإقامة	-10.9449
▁תן	-10.945
עצור	-10.9453
▁الفنادق	-10.9454
▁للك	-10.9455
▁בלונדון	-10.9455
قرب	-10.9456
▁הרגליים	-10.9456
▁ביקורות	-10.9458
هب	-10.9458
▁محكمة	-10.9459
▁مصالح	-10.9459
▁أود	-10.946
مدينة	-10.946
▁تطبيقات	-10.946
▁Hotel	-10.9461
▁עמיד	-10.9467
وظيف	-10.9469
▁מכירות	-10.947
▁מגדל	-10.9471
▁רפואית	-10.9471
pr	-10.9471
▁يشبه	-10.9472
יחיד	-10.9472
יחס	-10.9473
▁באוויר	-10.9473
▁بأكملها	-10.9473
▁لدرجة	-10.9474
▁אחסון	-10.9475
▁دعا	-10.9476
▁وحده	-10.9476
▁لقاء	-10.9476
▁קשים	-10.9477
خب	-10.9478
صوت	-10.9478
▁שיו	-10.948
▁שיחק	-10.9481
שטח	-10.9483
▁جد	-10.9484
פסק	-10.9487
▁ראשוני	-10.9487
▁בכיתה	-10.9488
▁מסחר	-10.9489
أم	-10.9489
طلاق	-10.9491
▁רישום	-10.9492
▁نعلم	-10.9496
רחב	-10.9498
▁הולדת	-10.9499
▁פיננסי	-10.9501
▁הביטוי	-10.9503
صات	-10.9503
pi	-10.9503
فى	-10.9503
▁بوك	-10.9505
▁فاز	-10.9506
▁וזו	-10.9507
خضر	-10.9507
ens	-10.9507
עמק	-10.9508
▁נפל	-10.9508
حدد	-10.9509
▁1992	-10.9509
▁الاشتراك	-10.951
ack	-10.9511
קצב	-10.9512
ناقش	-10.9512
▁2.5	-10.9514
▁גלי	-10.9516
▁להתרחש	-10.9516
ice	-10.9516
▁التحديات	-10.9516
יטת	-10.9517
▁الجوي	-10.9518
▁בצבע	-10.9518
▁תחבורה	-10.9519
▁מכשירים	-10.9519
▁דמות	-10.952
▁San	-10.9521
▁مواصلة	-10.9521
גיל	-10.9522
▁מצוינת	-10.9522
▁שח	-10.9522
תאבד	-10.9523
▁الاستراتيجية	-10.9523
▁כללית	-10.9523
▁وعد	-10.9524
توصل	-10.9525
▁אשתו	-10.9525
▁جمال	-10.9526
מיים	-10.9529
▁المنازل	-10.9529
▁אבן	-10.953
الس	-10.953
רוץ	-10.9531
▁חשבו	-10.9532
▁בממוצע	-10.9534
▁בינ	-10.9534
▁גיבור	-10.9535
▁وينبغي	-10.9535
▁העת	-10.9537
▁הרצוי	-10.9537
גמר	-10.9537
▁עולמית	-10.9539
▁המסחר	-10.9539
▁שואל	-10.9539
الإنجليزية	-10.954
▁السلبية	-10.9541
wi	-10.9543
▁قمنا	-10.9543
▁במקור	-10.9543
▁يقود	-10.9545
▁الشخصيات	-10.9545
روف	-10.9546
▁בשום	-10.9546
▁נשלח	-10.9547
▁המחבר	-10.9547
▁התר	-10.9548
▁לחיי	-10.9548
ידע	-10.9548
واقع	-10.9549
ربط	-10.955
▁استكشاف	-10.9551
▁ואחרי	-10.9551
▁ספציפי	-10.9552
▁המשפטי	-10.9554
מיות	-10.9557
▁التحليل	-10.9558
▁العاملة	-10.9558
▁בחוק	-10.9559
▁النقاط	-10.956
موس	-10.9563
▁يحتاجون	-10.9564
▁ערים	-10.9567
▁صفقة	-10.9569
תיישב	-10.957
▁להתגבר	-10.9571
▁الالتزام	-10.9571
▁يدعم	-10.9571
RA	-10.9574
▁פרט	-10.9575
▁המפורסם	-10.9576
ki	-10.9576
زود	-10.9577
تظاهر	-10.9577
▁مجموع	-10.9578
שמה	-10.9579
▁لكنهم	-10.958
▁قر	-10.958
جيب	-10.958
▁בודד	-10.9584
▁وحيد	-10.9585
▁התרופות	-10.9588
▁בצורת	-10.9589
▁מפתיע	-10.9591
▁האינטרסים	-10.9591
▁הפרטים	-10.9591
▁توجه	-10.9591
▁يهودية	-10.9593
▁הרו	-10.9595
קוס	-10.9596
▁הבדל	-10.9596
▁הגיל	-10.9597
▁العلاجات	-10.9597
▁ור	-10.9597
▁קונג	-10.96
▁פיזי	-10.9601
▁المفضل	-10.9604
▁המרכזית	-10.9604
سيد	-10.9605
▁المعرض	-10.9607
▁معي	-10.9607
لحق	-10.9608
▁למעט	-10.9612
▁ساعد	-10.9613
▁لعمل	-10.9613
▁חיה	-10.9614
▁כר	-10.9614
▁معًا	-10.9615
תבסס	-10.9615
▁أيار	-10.9616
▁نافذة	-10.9617
▁צבאית	-10.9617
tro	-10.9621
▁بأكمله	-10.9627
▁חברתיים	-10.9627
קשה	-10.9627
دني	-10.9628
▁מיל	-10.9629
▁شخصا	-10.9631
ويات	-10.9631
▁הודעת	-10.9632
▁גא	-10.9633
▁רכישת	-10.9634
▁الهجرة	-10.9634
▁המתאים	-10.9635
▁الوظائف	-10.9635
اخت	-10.9643
▁تنمو	-10.9644
▁الجلوس	-10.9644
▁القاعدة	-10.9646
▁מקצועיים	-10.9646
▁والعالم	-10.9647
▁סדרת	-10.9647
▁ضخمة	-10.9648
▁نفهم	-10.9649
▁تشارك	-10.9651
▁مقال	-10.9651
▁بالضرورة	-10.9653
▁דיכאון	-10.9656
▁ופ	-10.9656
▁بقوة	-10.966
▁تجاوز	-10.9661
▁بور	-10.9665
▁וק	-10.9667
▁المرء	-10.9669
▁صحيفة	-10.9669
▁החודש	-10.9669
נתה	-10.967
זיק	-10.9671
ستغل	-10.9671
&	-10.9671
גינה	-10.9672
שרת	-10.9672
ווים	-10.9672
▁دقيق	-10.9672
▁עונה	-10.9673
▁מתפתח	-10.9674
▁הערים	-10.9675
רור	-10.9675
▁ליצירת	-10.9675
▁החוב	-10.9676
سنة	-10.9677
▁لسنوات	-10.9678
▁כלים	-10.968
▁وخلال	-10.968
شهد	-10.968
▁استثمار	-10.9681
▁نعمل	-10.9684
▁בנייה	-10.9684
גורמים	-10.9684
▁איתי	-10.9687
▁ملحوظ	-10.9689
▁הטבעי	-10.9693
نفس	-10.9694
توصي	-10.9694
▁החזר	-10.9695
▁1995	-10.9695
جب	-10.9695
▁Pa	-10.9697
▁מצפה	-10.9697
צדק	-10.9697
3.	-10.9697
▁לתאר	-10.9698
▁فائدة	-10.9698
ep	-10.9698
▁בתחומי	-10.97
מקור	-10.9702
61	-10.9702
▁הרוב	-10.9704
لّ	-10.9704
خدمة	-10.9705
▁البكالوريوس	-10.9705
▁המבנה	-10.9705
▁يورو	-10.9706
מורים	-10.9707
▁ومنذ	-10.9707
0،000	-10.9708
▁חלש	-10.9713
▁מנו	-10.9713
▁حبوب	-10.9714
▁כשהם	-10.9714
طرد	-10.9714
משק	-10.9715
▁מעלה	-10.9715
▁يملك	-10.9715
▁לשיפור	-10.9715
▁تأمين	-10.9717
▁התוכניות	-10.9718
▁فل	-10.9721
▁تأكل	-10.9724
▁בריאים	-10.9725
▁أسبوعين	-10.9726
▁لطيف	-10.9727
▁שבת	-10.9728
▁הירוק	-10.9728
שט	-10.9728
▁مياه	-10.9729
ودي	-10.973
▁בקול	-10.9732
▁مصلحة	-10.9732
▁الميزات	-10.9732
▁تجارب	-10.9732
جامعة	-10.9735
▁ضبط	-10.9737
▁ليكون	-10.9737
▁فلسطينية	-10.9738
▁שנייה	-10.9738
▁مستمر	-10.9739
שיח	-10.974
سفر	-10.974
▁ויכול	-10.974
رَ	-10.9742
▁הלימוד	-10.9744
▁רישיון	-10.9744
▁ونتيجة	-10.9745
עלה	-10.9748
▁تضم	-10.975
פסיק	-10.9751
▁חוויה	-10.9751
▁التقارير	-10.9752
ug	-10.9755
عل	-10.9757
▁הצו	-10.9757
▁מבוגר	-10.9757
▁להורדה	-10.9757
▁להלן	-10.9758
▁بحق	-10.9758
▁דאעש	-10.9759
▁وماذا	-10.9759
▁נופל	-10.9759
▁צמח	-10.976
פילוסופי	-10.9761
חסן	-10.9761
▁بكم	-10.9762
تير	-10.9764
▁מוצק	-10.9764
▁מבטיח	-10.9764
▁סן	-10.9765
▁מצוי	-10.9765
▁Watch	-10.9766
▁בקי	-10.9768
▁כספים	-10.9769
تابع	-10.9769
رحيل	-10.9769
דע	-10.977
▁يشعرون	-10.9771
مارس	-10.9773
ضطر	-10.9774
▁عدو	-10.9777
▁התשלום	-10.9779
▁סבל	-10.9782
▁لإعادة	-10.9783
▁מצוין	-10.9785
54	-10.9786
▁صح	-10.9787
רוג	-10.9787
▁1996	-10.9789
▁לתפקיד	-10.9789
▁مقتل	-10.979
▁عملت	-10.9791
▁سيد	-10.9791
▁התעשייה	-10.9792
▁يذكر	-10.9795
▁הקרובים	-10.9795
▁כביש	-10.9797
▁כנגד	-10.9798
mon	-10.9799
▁הפו	-10.9799
فقد	-10.9799
عض	-10.98
עבד	-10.9801
▁הופכים	-10.9801
עיני	-10.9802
▁المنح	-10.9802
▁בדף	-10.9804
▁الأمام	-10.9805
▁الفا	-10.9805
▁לשכוח	-10.9806
▁المرجح	-10.9808
▁البيضاء	-10.9808
▁למשחק	-10.9809
▁טיול	-10.981
ضاع	-10.9812
▁התושבים	-10.9813
▁Com	-10.9818
لوب	-10.9818
▁ظاهرة	-10.9825
▁نسبيا	-10.9828
יימס	-10.9831
▁المذكورة	-10.9831
מוני	-10.9833
▁لأنني	-10.9835
▁1.1	-10.9837
قفز	-10.9837
نفذ	-10.9837
َب	-10.9838
▁החליט	-10.9839
▁الانتباه	-10.9839
▁האחים	-10.984
▁الهيكل	-10.9841
פקד	-10.9841
يقة	-10.9841
▁شخصًا	-10.9842
▁شيوعا	-10.9845
▁לשנה	-10.9847
▁مذهلة	-10.9847
▁السفينة	-10.9848
▁נמשך	-10.9849
▁לביצוע	-10.9849
علام	-10.9849
▁رحلات	-10.9849
▁אכפת	-10.9852
▁משבר	-10.9855
راحة	-10.9856
▁تمتلك	-10.9856
▁במלחמה	-10.9858
דרש	-10.9858
רוצים	-10.9859
▁קישורים	-10.986
▁יולי	-10.986
▁العاملين	-10.9861
▁קיץ	-10.9862
▁משולב	-10.9862
out	-10.9863
▁الكبد	-10.9863
▁يمتلك	-10.9865
▁שיחה	-10.9867
▁למוות	-10.9868
▁מגורים	-10.9868
▁תיירים	-10.9871
لاف	-10.9874
▁אחות	-10.9874
ערים	-10.9874
▁ואח	-10.9875
صدر	-10.9875
טט	-10.9876
▁הישן	-10.9877
פגע	-10.9878
▁הכישורים	-10.9878
▁מסלול	-10.9879
واجه	-10.988
▁الهجمات	-10.988
▁המחירים	-10.9881
").	-10.9881
תית	-10.9882
▁المتحف	-10.9882
▁مؤ	-10.9882
▁النبات	-10.9883
تنافس	-10.9884
▁הקדוש	-10.9884
▁הצעיר	-10.9884
▁تجمع	-10.9885
▁لأحد	-10.9885
▁مستقلة	-10.9886
كمل	-10.9886
زو	-10.9886
▁مجاني	-10.9887
ِل	-10.9891
طريقة	-10.9891
▁حاولت	-10.9891
▁الانضمام	-10.9891
תקיים	-10.9892
▁הגיוני	-10.9892
▁לזכות	-10.9893
▁מוחלט	-10.9893
ke	-10.9894
▁שקרה	-10.9894
▁כואב	-10.9895
▁تمويل	-10.9897
ממשלת	-10.9898
▁أوقات	-10.9898
▁יוצרים	-10.9899
▁الكلاسيكية	-10.99
▁أزمة	-10.9902
▁מתקדמים	-10.9902
▁מתרחשת	-10.9903
דא	-10.9906
▁والمجتمع	-10.9906
▁المصرية	-10.9907
SS	-10.9908
حضر	-10.9908
▁أفلام	-10.9909
▁סדרה	-10.9911
▁مرت	-10.9911
▁أنشطة	-10.9914
▁מלמד	-10.9914
▁كشف	-10.9915
▁زال	-10.9916
▁احترام	-10.9917
▁ملغ	-10.9917
▁بري	-10.9917
ודיע	-10.9918
▁החמ	-10.9918
بري	-10.9919
ורדים	-10.992
ّق	-10.992
جزء	-10.9922
▁לשטוף	-10.9922
▁קישור	-10.9923
▁المصالح	-10.9923
ולוגי	-10.9925
نسي	-10.9929
▁שונא	-10.993
▁التقنيات	-10.9931
▁עסוק	-10.9931
▁ישנה	-10.9931
רוע	-10.9931
قع	-10.9931
-60	-10.9931
▁تك	-10.9931
▁العاصمة	-10.9934
▁הגורם	-10.9935
توقع	-10.9935
ابت	-10.9935
▁تصور	-10.9935
▁جلب	-10.9936
▁הפרי	-10.9936
ny	-10.9936
גמל	-10.9937
▁בקנה	-10.9938
קרי	-10.9938
▁السفلي	-10.9939
رية	-10.9941
تى	-10.9941
سمع	-10.9941
▁מנהלים	-10.9944
▁מקל	-10.9944
▁التزام	-10.9944
كذب	-10.9944
ברים	-10.9944
عن	-10.9944
عتقد	-10.9945
נסו	-10.9945
▁الباحثين	-10.9945
עמוד	-10.9945
▁משק	-10.9946
SC	-10.9947
▁טבעיים	-10.995
▁Can	-10.995
▁القليلة	-10.9951
▁هيكل	-10.9951
▁החבר	-10.9951
▁נראית	-10.9952
מבו	-10.9953
صمم	-10.9953
נאום	-10.9954
راجع	-10.9955
▁يترك	-10.9955
▁180	-10.9955
▁لزيادة	-10.9956
▁لتغيير	-10.9957
אנשים	-10.9958
▁الزوج	-10.9959
ידים	-10.9959
סקר	-10.9961
▁فم	-10.9961
נל	-10.9962
by	-10.9963
פח	-10.9966
▁كول	-10.9966
▁خبراء	-10.9968
▁شيئاً	-10.9968
עוני	-10.9971
لاجئ	-10.9971
▁באשר	-10.9971
ero	-10.9971
▁מחשבים	-10.9974
הליכים	-10.9975
يرو	-10.9976
gu	-10.9977
َا	-10.9977
▁البرلمان	-10.9978
▁פתיחת	-10.9978
▁ميزات	-10.9979
חייב	-10.9979
▁הזהב	-10.998
טבע	-10.9981
▁مخطط	-10.9982
▁تحدد	-10.9983
▁לבלות	-10.9983
▁הציג	-10.9984
▁המכונה	-10.9988
▁במידע	-10.9988
▁الجر	-10.9989
▁مج	-10.999
▁غريبة	-10.9992
▁החולה	-10.9992
▁המחלקה	-10.9992
▁المك	-10.9992
צא	-10.9992
▁انضم	-10.9992
עבוד	-10.9993
▁מאבק	-10.9994
▁تمّ	-10.9994
▁מקובל	-10.9998
▁עולמי	-10.9998
▁تا	-11
▁להגביר	-11
▁האחר	-11
▁المختبر	-11.0001
▁الظلام	-11.0002
ثني	-11.0003
▁האחריות	-11.0004
▁السير	-11.0007
▁רגילים	-11.0008
rn	-11.0009
סביב	-11.001
لند	-11.001
▁قريبة	-11.0011
▁התנגדות	-11.0011
מנע	-11.0016
▁דורשים	-11.0016
▁הסל	-11.0017
▁43	-11.0017
▁يحدد	-11.0017
איש	-11.0018
▁زوجته	-11.0018
▁בתא	-11.0019
▁התגובה	-11.0019
72	-11.0022
نتهي	-11.0022
▁يهدف	-11.0023
פיר	-11.0023
نتظر	-11.0023
▁وعن	-11.0023
וריד	-11.0024
شب	-11.0025
شبكة	-11.0025
غرب	-11.0026
غة	-11.0027
▁אוכלים	-11.0028
▁לחשבון	-11.0028
سياسة	-11.0028
تحكم	-11.003
▁El	-11.0031
▁הכלים	-11.0031
▁Air	-11.0031
unt	-11.0032
لمس	-11.0032
▁לציבור	-11.0032
ייג	-11.0033
▁לומד	-11.0035
▁בהדרגה	-11.0035
▁אוסף	-11.0039
▁למערכת	-11.0039
▁YouTube	-11.004
▁الرسم	-11.0047
▁גרסה	-11.0047
▁تب	-11.0048
▁התק	-11.0049
▁מסביר	-11.005
▁اللغات	-11.0052
دق	-11.0052
نيل	-11.0055
▁כזאת	-11.0055
▁לכיוון	-11.0055
▁אוניברסיטאות	-11.0057
way	-11.0057
▁انتشار	-11.0061
PE	-11.0061
▁حادث	-11.0062
▁1993	-11.0063
▁מכר	-11.0065
▁האמריקנית	-11.0068
▁בניהול	-11.0068
▁הציע	-11.0071
▁الاحتفاظ	-11.0071
ja	-11.0073
▁ينتظر	-11.0073
ّين	-11.0073
▁גזע	-11.0074
שנת	-11.0074
מנות	-11.0074
حوالي	-11.0075
סמו	-11.0076
▁نظرية	-11.0077
ind	-11.0079
▁الشراء	-11.008
▁הסורי	-11.0081
שעה	-11.0082
▁טכני	-11.0085
▁الحرارية	-11.0086
זרוע	-11.0089
▁والخدمات	-11.0089
▁يواجه	-11.009
▁الخصائص	-11.009
▁בשיעור	-11.0091
תמיד	-11.0092
اتي	-11.0093
▁מלח	-11.0094
▁وأيضا	-11.0096
▁السا	-11.0096
▁الشوارع	-11.0097
זאת	-11.0098
▁1994	-11.0098
▁מקו	-11.0098
▁We	-11.0099
▁שיטת	-11.0099
62	-11.01
▁מדריך	-11.01
▁لفهم	-11.01
Ch	-11.01
▁לעתיד	-11.0101
▁نهر	-11.0101
▁הכדור	-11.0101
▁الحقائق	-11.0102
يتهم	-11.0105
חזיק	-11.0105
הישג	-11.0105
▁סחר	-11.0105
▁סיור	-11.0105
حماس	-11.0107
▁בפנים	-11.011
ik	-11.0111
▁מפלגת	-11.0112
▁وأضافت	-11.0117
▁לדמיין	-11.0118
סגר	-11.0121
▁لكننا	-11.0121
▁להתייחס	-11.0124
▁ובכן	-11.0124
▁سراح	-11.0124
51	-11.0125
ביה	-11.0125
▁שד	-11.0125
יסטים	-11.0126
ّى	-11.0126
توجه	-11.0127
93	-11.0129
▁أدنى	-11.0129
▁ילדי	-11.0129
▁להשתנות	-11.0129
▁הרווח	-11.013
גישה	-11.0131
▁المدير	-11.0131
▁ואנו	-11.0132
▁لإدارة	-11.0132
▁العظام	-11.0133
▁أنتم	-11.0133
▁יג	-11.0134
▁لق	-11.0135
وج	-11.0135
▁השונות	-11.0135
▁דא	-11.0135
▁نار	-11.0136
כא	-11.0136
ave	-11.0139
▁המוכר	-11.014
▁איכותי	-11.0141
▁עצם	-11.0141
▁الهامة	-11.0142
▁המטוס	-11.0144
▁מונע	-11.0144
▁كتلة	-11.0145
וניות	-11.0145
▁למחקר	-11.0147
سأل	-11.0148
▁منصة	-11.0155
AP	-11.0155
▁הנסיעה	-11.0155
▁האמ	-11.0155
▁אזרח	-11.0156
▁Pe	-11.0156
רגיש	-11.0157
נתונים	-11.0158
אהבה	-11.0158
▁محدد	-11.016
ونغ	-11.016
▁MS	-11.0163
زعج	-11.0165
▁להוכיח	-11.0167
▁ובו	-11.0167
عام	-11.0168
▁החורף	-11.0169
▁بانتظام	-11.0171
▁אמי	-11.0171
▁نسخ	-11.0172
▁תומך	-11.0174
▁ردود	-11.0174
▁מזונות	-11.0174
▁يستطيعون	-11.0175
▁نعتقد	-11.0176
▁عبد	-11.0176
▁כלכלה	-11.0176
▁Internet	-11.0177
▁הערות	-11.0177
▁שאמר	-11.0177
▁شرطة	-11.0177
לפני	-11.018
▁المعدات	-11.0182
▁اعت	-11.0182
▁جاك	-11.0184
▁أش	-11.0186
▁גלו	-11.0186
▁למנהל	-11.0188
ائح	-11.019
▁סגל	-11.0192
▁שנערך	-11.0193
▁HP	-11.0196
▁إننا	-11.0196
▁ביולוגי	-11.0196
▁תרגום	-11.0198
▁انتخابات	-11.0199
מלי	-11.02
56	-11.02
▁والذين	-11.0201
شهر	-11.0202
▁سرير	-11.0202
▁والتكنولوجيا	-11.0202
84	-11.0202
▁מבנים	-11.0203
יגה	-11.0203
▁זכור	-11.0204
له	-11.0204
lin	-11.0204
ence	-11.0204
▁האוכל	-11.0206
▁إع	-11.0206
▁יבוא	-11.0208
▁פלא	-11.0208
▁נד	-11.0209
ميم	-11.0209
▁آلة	-11.0209
▁مض	-11.021
▁كوكب	-11.021
▁מוס	-11.0211
מוקד	-11.0211
▁التقاط	-11.0212
SM	-11.0214
▁عمره	-11.0215
▁סגנון	-11.0215
▁يدور	-11.0215
ّع	-11.0217
لاعب	-11.0218
▁הדף	-11.0221
▁בימי	-11.0221
▁הליך	-11.0222
تَ	-11.0223
فهم	-11.0224
▁46	-11.0225
▁وعادة	-11.0226
▁وتشمل	-11.0226
▁לנקות	-11.0228
طا	-11.023
700	-11.0233
▁محدود	-11.0234
▁Go	-11.0235
tin	-11.0236
שרות	-11.0237
▁تقارير	-11.0239
▁للطفل	-11.0241
▁במכשיר	-11.0242
▁يرجع	-11.0242
▁العظيم	-11.0242
▁מקסיקו	-11.0242
▁وجعل	-11.0243
מוד	-11.0243
אבי	-11.0244
▁سائق	-11.0245
تاح	-11.0248
נחה	-11.0248
פיות	-11.025
▁ברחוב	-11.0252
▁הנוגע	-11.0253
▁ينصح	-11.0254
▁יער	-11.0254
▁إشارة	-11.0255
▁הדוק	-11.0256
▁לעובד	-11.0256
▁99	-11.0259
▁ونقل	-11.026
▁Gu	-11.0261
لتزم	-11.0262
▁الجراحة	-11.0262
▁الأزرق	-11.0262
▁القطار	-11.0263
▁فإنّ	-11.0263
דברים	-11.0263
▁החיצוני	-11.0266
ere	-11.0269
▁טילים	-11.0271
حافظ	-11.0271
▁ידעתי	-11.0271
▁בבירור	-11.0271
ID	-11.0272
RO	-11.0274
▁k	-11.0275
▁يخرج	-11.0276
▁طبيعة	-11.0278
قلب	-11.0279
▁التل	-11.028
▁תעודת	-11.0281
כמות	-11.0282
▁חמור	-11.0284
▁האקדמיה	-11.0289
▁בכפר	-11.0292
▁طاقة	-11.0292
شكر	-11.0293
▁المعروفة	-11.0294
▁إجابة	-11.0295
▁برلين	-11.0295
כרות	-11.0296
▁الأسد	-11.0297
قاس	-11.0298
▁تتوفر	-11.0298
den	-11.0298
▁הגרעין	-11.0298
ضاعف	-11.0298
ورا	-11.0299
▁היסוד	-11.03
▁מכם	-11.03
▁מאושר	-11.0303
▁20%	-11.0303
▁مثلما	-11.0304
▁יתרון	-11.0305
▁يأكل	-11.0306
יכולת	-11.0306
صحيح	-11.0306
▁الثقافات	-11.0307
▁ביטחוני	-11.0307
▁سمع	-11.0308
وصل	-11.0309
موضوع	-11.031
▁כלבים	-11.031
▁نهائي	-11.0311
احة	-11.0312
▁לרשות	-11.0312
▁בניין	-11.0313
רמו	-11.0314
خوف	-11.0315
▁المبيعات	-11.0317
▁التوازن	-11.0317
▁مشارك	-11.0317
▁بجانب	-11.0318
▁שולט	-11.0318
▁ניסויים	-11.0321
▁لأغراض	-11.0322
▁התור	-11.0322
▁البدنية	-11.0323
▁שרוצים	-11.0325
3)	-11.0331
63	-11.0331
▁المجموعات	-11.0331
▁وعمل	-11.0332
▁פלסטיק	-11.0335
▁צהוב	-11.0336
سكر	-11.0337
res	-11.0338
▁’	-11.0341
فيلم	-11.0342
▁الشحن	-11.0344
حض	-11.0344
▁1997	-11.0345
CI	-11.0345
▁1)	-11.0346
▁הפוליטית	-11.0347
AD	-11.035
▁הבין	-11.0351
▁التوصل	-11.0351
▁ضرر	-11.0354
ברך	-11.0354
חומר	-11.0355
דרכה	-11.0356
▁האס	-11.0356
▁الكاميرا	-11.0359
ربية	-11.0361
▁يبحث	-11.0362
منع	-11.0363
▁اقرأ	-11.0363
▁האירועים	-11.0365
عبر	-11.0367
▁ברצלונה	-11.0368
صوص	-11.037
▁ضرورية	-11.0372
Tr	-11.0372
َم	-11.0372
טיפול	-11.0376
▁نماذج	-11.0377
▁الواحد	-11.0377
▁מוצג	-11.0379
▁تواصل	-11.0379
ופה	-11.038
▁הגיבור	-11.038
▁בוחר	-11.038
▁ידידותי	-11.0381
▁مؤشر	-11.0383
▁קריטי	-11.0384
▁הקודמת	-11.0386
▁להעניק	-11.0386
▁تنتهي	-11.0387
▁לזכויות	-11.0389
▁שיא	-11.0389
▁הכלל	-11.0391
▁الاخيرة	-11.0391
▁Play	-11.0392
▁הרשימה	-11.0392
▁التصويت	-11.0393
▁تفقد	-11.0394
▁להשכלה	-11.0394
▁נותנים	-11.0394
זק	-11.0394
▁שעלול	-11.0396
▁נקודה	-11.0397
אלוהים	-11.0398
هندس	-11.0399
▁النهار	-11.0401
▁מקומי	-11.0401
▁مستشفى	-11.0402
DE	-11.0402
▁מפקד	-11.0404
▁הטכני	-11.0404
▁הפנימי	-11.0404
קדש	-11.0404
▁رئيسية	-11.0406
שות	-11.041
In	-11.0411
▁القط	-11.0415
?!	-11.0415
▁إنقاذ	-11.0418
▁ספרי	-11.042
▁طبيبك	-11.0421
צור	-11.0422
▁فلم	-11.0422
▁تكاليف	-11.0422
▁إلينا	-11.0425
▁أساسية	-11.0425
▁تق	-11.0425
▁لتلبية	-11.0426
▁מוחמד	-11.0426
▁כתוב	-11.0427
ندا	-11.0428
تناسب	-11.0429
سلم	-11.043
▁הבנייה	-11.0431
▁تخرج	-11.0432
انو	-11.0434
▁לעצמו	-11.0436
▁שג	-11.0437
300	-11.0438
كَ	-11.0442
▁מרק	-11.0443
▁וחי	-11.0444
▁ולח	-11.0444
▁الفلسطينيون	-11.0446
▁נתפס	-11.0447
▁يفكر	-11.0447
מעשה	-11.045
sta	-11.045
رأي	-11.0451
سار	-11.0451
▁وسلم	-11.0451
▁المواضيع	-11.0453
▁حظ	-11.0455
▁בשילוב	-11.0455
▁מעורב	-11.0455
▁מרגש	-11.0456
▁מעורר	-11.0456
▁الأجنبية	-11.0457
▁בסביבות	-11.0458
זים	-11.0458
▁تجاهل	-11.0459
▁بلاد	-11.0459
▁السمك	-11.0461
▁הקשה	-11.0462
תוכן	-11.0463
▁إب	-11.0463
og	-11.0464
צפו	-11.0464
▁اعتقد	-11.0465
▁לעסקים	-11.0466
▁ההצלחה	-11.0466
▁הוד	-11.0467
سكان	-11.0468
▁متعة	-11.047
▁الرياضيات	-11.0471
▁העשיר	-11.0473
▁למחשב	-11.0473
▁ברשימה	-11.0473
מטי	-11.0475
כתיב	-11.0475
▁Park	-11.0475
▁الدينية	-11.0475
حرب	-11.0477
▁התכונות	-11.0478
▁التوجيه	-11.0481
▁פסיכולוגי	-11.0481
sion	-11.0482
▁عرف	-11.0487
ראית	-11.0491
نص	-11.0491
▁וסי	-11.0491
▁המכיל	-11.0493
▁לשחרר	-11.0495
▁מוגבלת	-11.0495
▁בלא	-11.0495
▁الطماطم	-11.0495
אנר	-11.0496
▁رسمي	-11.0496
▁קנדה	-11.0497
מדינה	-11.0497
دوم	-11.0497
ary	-11.0498
▁השחקן	-11.0499
▁المحددة	-11.0499
כפי	-11.0499
▁مباراة	-11.05
▁אפל	-11.05
▁حقاً	-11.05
▁الاحتياجات	-11.0501
ומני	-11.0502
▁לחוות	-11.0503
שחר	-11.0504
▁مراحل	-11.0504
▁التكلفة	-11.0505
حديث	-11.0505
تفق	-11.0507
▁משטר	-11.0507
▁المحرك	-11.0508
▁יומי	-11.0509
▁41	-11.0509
▁الرأي	-11.0509
▁פריטים	-11.051
יאו	-11.0512
▁التشخيص	-11.0513
▁סמ	-11.0514
باس	-11.0514
▁وجاء	-11.0515
▁المباشر	-11.0516
▁פטר	-11.0517
▁لاحظ	-11.0518
▁שיח	-11.0519
▁קשות	-11.0519
رير	-11.0521
▁קרו	-11.0522
▁للف	-11.0523
▁מפו	-11.0527
▁הצמיחה	-11.0527
▁חריג	-11.0527
▁الرابعة	-11.0528
ولات	-11.0531
▁كتبت	-11.0532
▁أكاديمية	-11.0534
▁البن	-11.0534
▁عميق	-11.0535
▁המדיני	-11.0536
AN	-11.0536
53	-11.0538
▁أكل	-11.0539
▁للبيع	-11.0539
صالح	-11.054
▁המטבע	-11.054
▁سياق	-11.054
▁האשראי	-11.0542
▁النسخة	-11.0543
عشر	-11.0543
▁באש	-11.0543
נקו	-11.0544
טבח	-11.0544
▁ברזיל	-11.0547
▁שקיבל	-11.0547
تبرع	-11.0548
ווין	-11.055
▁مون	-11.0551
▁شديدة	-11.0552
▁הסכסוך	-11.0553
قارن	-11.0553
▁כוכבים	-11.0554
ضيف	-11.0557
▁يتمتع	-11.0559
▁هدية	-11.056
▁ערוץ	-11.056
עובד	-11.0561
▁سب	-11.0562
▁והה	-11.0562
▁فقدت	-11.0562
hy	-11.0564
▁والاقتصاد	-11.0564
▁העליונה	-11.0564
ace	-11.0566
▁USB	-11.0566
▁המיועד	-11.0568
▁عرضة	-11.057
▁التش	-11.057
▁הגז	-11.0573
قرأ	-11.0575
פלו	-11.0575
هُ	-11.0576
▁בוגרי	-11.0577
port	-11.0578
▁الوثائق	-11.0579
أربع	-11.058
▁52	-11.058
▁חלום	-11.0581
סף	-11.0581
יבות	-11.0582
▁קשורה	-11.0583
▁وتقديم	-11.0583
▁الذكور	-11.0583
▁منفصل	-11.0583
▁בסיכון	-11.0584
רשו	-11.0584
יבים	-11.0586
▁وبناء	-11.0586
לחם	-11.0586
▁التعرض	-11.0586
ותם	-11.0587
يمكن	-11.0587
▁أساسا	-11.0588
▁الخشب	-11.0588
▁فيمكنك	-11.0589
▁صحيحة	-11.0589
ng	-11.0591
▁معقدة	-11.0595
▁ואחר	-11.0595
▁حيوان	-11.0596
▁לקידום	-11.0597
▁باعتبارها	-11.0597
▁הזמנים	-11.0598
▁רביעי	-11.0598
פגש	-11.06
▁מרכיב	-11.06
▁טיסה	-11.0604
▁שרוב	-11.0605
▁القبض	-11.0605
▁האוניברסיטאות	-11.0606
des	-11.0606
▁للأسف	-11.0606
▁بقيمة	-11.0607
▁زراعة	-11.0611
|	-11.0611
ضعف	-11.0612
▁מידי	-11.0612
פרק	-11.0615
▁עובדי	-11.0616
شرف	-11.0617
▁טיפים	-11.062
▁ممن	-11.062
لصق	-11.0621
▁Sa	-11.0621
▁القومية	-11.0621
▁כישורי	-11.0622
כלו	-11.0623
שחק	-11.0624
شركة	-11.0624
לילה	-11.0625
▁نائب	-11.0625
CH	-11.0625
ّن	-11.0628
ده	-11.0628
▁الأسر	-11.0629
▁3:	-11.063
عب	-11.0634
▁بإجراء	-11.0635
▁2-3	-11.0636
▁שעשוי	-11.0636
▁ببطء	-11.0639
▁عاصمة	-11.0639
▁מעצר	-11.0639
تميز	-11.064
تذكر	-11.064
▁فرع	-11.0642
▁מספרים	-11.0643
▁בזהירות	-11.0644
▁קונ	-11.0644
▁1991	-11.0645
▁اضغط	-11.0645
حتى	-11.0645
▁האפשרויות	-11.0645
▁הראו	-11.0646
أت	-11.0646
▁הבן	-11.0647
▁الاثنين	-11.0648
▁معايير	-11.0648
▁הפעלה	-11.065
▁הוכח	-11.0651
▁לאהוב	-11.0651
الع	-11.0652
▁الكبار	-11.0652
רשם	-11.0652
راج	-11.0653
اقات	-11.0653
▁إنهاء	-11.0653
شيء	-11.0653
▁השתמשו	-11.0653
ותיו	-11.0654
▁חוקים	-11.0656
▁الروبوت	-11.0657
▁سيحدث	-11.0659
69	-11.0659
▁מחובר	-11.066
َل	-11.0661
▁עומדת	-11.0663
▁שלח	-11.0665
▁הפוליטי	-11.0665
ערי	-11.0665
▁דברי	-11.0666
▁אופניים	-11.0667
▁تماماً	-11.067
קרב	-11.067
▁לרבות	-11.067
▁האמיתית	-11.0671
▁اخ	-11.0671
▁موافقة	-11.0671
▁בנ	-11.0673
▁إصابة	-11.0673
▁הינה	-11.0674
▁בצע	-11.0674
▁العصور	-11.0676
▁والبحث	-11.0677
التي	-11.0677
▁להתחבר	-11.0677
▁השעה	-11.0678
الشكل	-11.0678
אוויר	-11.068
▁המועצות	-11.068
גרות	-11.0682
▁استخدمت	-11.0682
רוף	-11.0683
nd	-11.0684
▁לחסוך	-11.0685
▁بيتكوين	-11.0686
▁מבוססת	-11.0687
טרה	-11.0689
▁الرابط	-11.0689
רוז	-11.069
▁שפ	-11.069
ייר	-11.069
▁פנימי	-11.0692
▁الكنيست	-11.0695
حقق	-11.0696
ort	-11.0696
▁والخ	-11.0697
▁لحم	-11.0697
▁الدور	-11.07
▁בך	-11.07
قيد	-11.0701
▁فست	-11.0702
▁לדוגמא	-11.0702
وغ	-11.0702
▁לחלוק	-11.0703
▁מורכבת	-11.0704
▁لنظام	-11.0704
▁Xiaomi	-11.0704
▁רציתי	-11.0704
دس	-11.0705
▁تنسى	-11.0706
עשרה	-11.0707
▁לחינוך	-11.0707
oo	-11.0709
נוגד	-11.0709
עור	-11.0709
▁المعدة	-11.0709
يوس	-11.0711
▁ריי	-11.0711
▁נגמר	-11.0712
▁אישר	-11.0712
נתי	-11.0713
ath	-11.0713
آب	-11.0715
▁تجاري	-11.0716
شدد	-11.0717
ביו	-11.0717
▁סמים	-11.0718
▁הופעת	-11.0719
حين	-11.0723
▁לסי	-11.0723
▁לעצמך	-11.0723
▁שבועיים	-11.0724
▁הסביר	-11.0724
קום	-11.0726
▁מראים	-11.0726
▁המערבי	-11.0727
شتري	-11.0727
بريد	-11.0727
▁סיפורים	-11.0728
▁والنساء	-11.0728
מחקר	-11.0729
▁تتمتع	-11.0729
▁גשר	-11.073
▁חוות	-11.0734
▁1.2	-11.0734
ical	-11.0735
▁85	-11.0737
▁عنك	-11.0737
▁1-	-11.0741
▁المفتوحة	-11.0742
▁מאפשרים	-11.0742
tu	-11.0742
سلح	-11.0743
ET	-11.0743
رحب	-11.0746
ase	-11.0747
▁Lync	-11.0747
رث	-11.075
73	-11.075
בנות	-11.075
ערב	-11.075
▁الارتباط	-11.0751
ON	-11.0752
▁بحرية	-11.0752
▁קשורים	-11.0753
▁חודשי	-11.0755
▁הביטוח	-11.0757
▁للج	-11.0757
رفض	-11.0759
▁צמיחה	-11.0761
▁לחימה	-11.0761
▁מסי	-11.0762
פליט	-11.0762
▁הוקמה	-11.0762
نية	-11.0763
שמת	-11.0763
▁למניעת	-11.0766
▁לאחרים	-11.0766
▁הזכויות	-11.0768
▁الفنون	-11.0768
▁לרשת	-11.0769
▁Po	-11.077
▁שימש	-11.0771
▁מאבד	-11.0771
▁הלך	-11.0772
▁במוח	-11.0772
▁الأزمة	-11.0773
▁يتوقع	-11.0774
جسد	-11.0774
▁רא	-11.0774
▁الشهير	-11.0775
▁مؤقت	-11.0776
סיפור	-11.0776
▁לתקשר	-11.0778
▁ممتاز	-11.0779
▁لبدء	-11.0779
▁בוחרים	-11.0781
fi	-11.0781
▁الجدول	-11.0781
▁נפגע	-11.0782
▁منخفض	-11.0782
▁גורל	-11.0783
▁مغ	-11.0783
ظن	-11.0784
حوا	-11.0784
▁חלופי	-11.0785
ستون	-11.0786
جرح	-11.0787
ins	-11.0787
▁هار	-11.0788
لاك	-11.0789
▁הרופאים	-11.0789
▁השאלות	-11.079
▁בנפרד	-11.0792
▁المفترض	-11.0793
▁מורים	-11.0794
▁מונח	-11.0795
▁לוקחים	-11.0796
▁רכבת	-11.0796
▁قصص	-11.0796
▁הביטחוני	-11.0797
יאה	-11.0798
تيل	-11.0798
▁تحسن	-11.0799
קין	-11.08
▁זכאים	-11.08
▁מתנה	-11.08
▁جمهورية	-11.0801
▁הרביעי	-11.0802
سوف	-11.0802
▁وحدها	-11.0803
▁الجمعية	-11.0803
▁לכת	-11.0803
▁سنتين	-11.0803
فرح	-11.0805
بذل	-11.0808
▁أسر	-11.0809
▁לחברה	-11.081
EP	-11.081
▁המכללה	-11.0811
تبع	-11.0811
صديق	-11.0811
▁יהודית	-11.0813
דמה	-11.0813
▁מופ	-11.0815
كبر	-11.0816
▁إنجلترا	-11.0818
▁ثابت	-11.0818
▁قضاء	-11.0818
▁רחבה	-11.0823
▁התמחות	-11.0824
هى	-11.0826
נפגע	-11.0826
מתח	-11.0828
▁מחכה	-11.0828
▁בלו	-11.0828
▁ارتداء	-11.0829
52	-11.0831
▁لمساعدتك	-11.0832
▁המסלול	-11.0832
▁ידועה	-11.0833
خفي	-11.0833
▁ישר	-11.0833
▁למשתמשים	-11.0833
cu	-11.0836
SI	-11.0836
▁أيدي	-11.0836
▁لأننا	-11.0837
▁עמדת	-11.0838
رقص	-11.0838
▁רצה	-11.0839
▁وهل	-11.0839
▁לוותר	-11.084
▁לאלוהים	-11.0841
▁הביקור	-11.0841
▁غالباً	-11.0841
▁بطبيعة	-11.0843
▁49	-11.0844
غادر	-11.0845
▁المحدد	-11.0845
▁اول	-11.0846
▁أوباما	-11.0846
▁עליי	-11.0847
▁يشارك	-11.0848
▁רוק	-11.0848
ָה	-11.0849
▁رب	-11.085
▁שנוצר	-11.085
▁أرقام	-11.085
▁ציבור	-11.0851
▁الهواتف	-11.0851
ساق	-11.0852
▁يوميًا	-11.0853
▁באה	-11.0854
▁تعالى	-11.0854
יכול	-11.0855
▁العنصر	-11.0856
▁شعار	-11.0856
▁אספקת	-11.0857
▁הכוללת	-11.0857
▁במדינת	-11.0857
בס	-11.0857
היא	-11.0858
▁מכונות	-11.086
هذه	-11.0862
▁בפעילות	-11.0862
▁בהתחשב	-11.0862
למות	-11.0864
ies	-11.0864
▁אק	-11.0865
ציב	-11.0866
▁هر	-11.0869
גלה	-11.087
▁כול	-11.0871
ذاب	-11.0871
شو	-11.0872
▁إسرائيلي	-11.0872
לפי	-11.0873
ספיק	-11.0874
جانب	-11.0874
עול	-11.0875
▁Ri	-11.0876
▁אוקטובר	-11.0877
▁ذهبت	-11.0879
▁הולנד	-11.088
▁التمييز	-11.0881
▁אנגליה	-11.0882
▁يومين	-11.0883
▁المقدسة	-11.0883
▁ילדה	-11.0884
▁נתון	-11.0884
▁ותו	-11.0884
▁מתאימים	-11.0885
▁מוקדמת	-11.0887
▁حرق	-11.0887
חוץ	-11.0889
▁السطح	-11.0892
if	-11.0893
▁בפרס	-11.0893
שווא	-11.0893
نظيف	-11.0894
▁אנדרואיד	-11.0895
טס	-11.0896
▁المصابين	-11.0897
▁ישראלית	-11.0897
▁مسرح	-11.0899
حقيقة	-11.09
▁صدر	-11.0901
▁بعيدة	-11.0903
▁متعدد	-11.0903
▁All	-11.0905
▁الجدد	-11.0905
▁קיבלה	-11.0905
▁جميعًا	-11.0906
▁الحية	-11.0907
▁فرد	-11.0908
▁הדמות	-11.0909
mg	-11.0909
▁الاولى	-11.0909
▁האמריקאים	-11.091
▁72	-11.0913
מדים	-11.0914
▁ولدت	-11.0915
▁למלחמה	-11.0916
▁المثالي	-11.0916
▁נכשל	-11.0916
▁ולהיות	-11.0917
▁הקובץ	-11.0917
▁מסחרי	-11.092
ملة	-11.0921
קרן	-11.0921
▁''	-11.0923
כשר	-11.0924
1,	-11.0925
מיני	-11.0926
▁الأدب	-11.0926
▁באים	-11.0926
ey	-11.0927
▁מעדיפים	-11.0929
SP	-11.093
▁تعاون	-11.0931
▁שימו	-11.0931
▁הקישור	-11.0933
▁הצרפתי	-11.0934
ואל	-11.0936
▁المعايير	-11.0938
▁القائم	-11.094
▁جاهز	-11.094
TE	-11.094
▁הרס	-11.0941
▁הייחודי	-11.0942
▁لدعم	-11.0943
▁חשש	-11.0943
יוני	-11.0945
▁הפה	-11.0947
يجب	-11.0949
▁עמד	-11.095
اتنا	-11.0951
▁أحلام	-11.0952
81	-11.0952
سطح	-11.0952
▁מדיה	-11.0953
يست	-11.0955
▁اقتصاد	-11.0955
مواطن	-11.0956
▁الأهمية	-11.0958
▁إله	-11.0959
شل	-11.0959
▁עין	-11.0959
אנגלית	-11.096
ُر	-11.0961
▁מעוניינים	-11.0962
▁מנה	-11.0962
▁קצרה	-11.0962
▁לפתרון	-11.0962
مشروع	-11.0963
وكي	-11.0963
▁قائلا	-11.0965
▁להצליח	-11.0967
▁مايكل	-11.0967
تخصص	-11.0969
▁מודעים	-11.097
▁תפקוד	-11.0971
▁עצמכם	-11.0971
▁לחשוף	-11.0973
▁pro	-11.0973
▁מקס	-11.0975
חודש	-11.0977
▁سيقوم	-11.0978
▁يهود	-11.0981
▁המשבר	-11.0982
ורס	-11.0982
▁דיי	-11.0983
58	-11.0986
ron	-11.0987
افي	-11.0987
▁חוף	-11.0988
سوق	-11.099
الذي	-11.0992
▁המותג	-11.0993
▁الجواب	-11.0995
▁במלחמת	-11.0995
▁اضطر	-11.0996
▁علوم	-11.1003
▁להודות	-11.1005
▁تركيب	-11.1006
▁اجتماعية	-11.1006
▁האבטחה	-11.1006
دعاء	-11.1006
▁المدني	-11.1006
تعهد	-11.1007
▁لف	-11.101
▁הקבצים	-11.101
▁وسيتم	-11.101
جهز	-11.1011
▁פרטיים	-11.1011
▁שהמ	-11.1011
▁נחש	-11.1012
▁ביי	-11.1012
كتشف	-11.1013
▁حمام	-11.1013
▁רפואיים	-11.1014
▁شرح	-11.1015
עיד	-11.1015
▁المقام	-11.1016
▁ספי	-11.1016
▁משפחתו	-11.1017
▁Un	-11.1017
طبع	-11.1018
▁החודשים	-11.1018
שרים	-11.102
▁ואנשי	-11.102
▁זיהוי	-11.102
▁סקירה	-11.102
מז	-11.1022
▁קריאה	-11.1022
▁השתנה	-11.1023
car	-11.1024
▁الأجر	-11.1024
▁התלמיד	-11.1026
CR	-11.1026
▁عروض	-11.1027
▁تأكيد	-11.1028
נושא	-11.1029
▁المفاصل	-11.1029
▁שפע	-11.1029
▁جوانب	-11.103
▁סתם	-11.103
▁אהוב	-11.1031
גלים	-11.1033
▁المسافة	-11.1033
סטו	-11.1037
כולל	-11.1039
▁اخر	-11.1039
▁יחס	-11.1039
▁مدن	-11.104
תחומי	-11.1043
ah	-11.1044
▁أدخل	-11.1044
ica	-11.1046
▁תחרות	-11.1048
▁סיני	-11.1048
▁המטרות	-11.1049
ובי	-11.1049
▁وزيادة	-11.1049
▁מגיעה	-11.1049
[3]	-11.105
▁السياح	-11.105
▁مرحبا	-11.105
רכש	-11.1053
▁استعمال	-11.1053
▁طبق	-11.1054
▁נהר	-11.1056
▁שאינה	-11.1056
▁كثيراً	-11.1057
▁הקשור	-11.1057
▁המונח	-11.106
▁יציב	-11.106
▁עיבוד	-11.1062
רשימה	-11.1063
▁بحر	-11.1063
▁האחורי	-11.1064
▁الجدران	-11.1064
▁ركوب	-11.1064
بتسم	-11.1065
▁تصريح	-11.1068
جول	-11.1068
▁ברצונך	-11.1069
▁עדכון	-11.1069
חזיר	-11.1069
ווד	-11.107
▁المنافسة	-11.1073
▁רומא	-11.1075
פורט	-11.1075
بون	-11.1077
عار	-11.1077
▁البند	-11.1077
▁مدرب	-11.1077
▁الثانوية	-11.1078
طاق	-11.1078
▁للعثور	-11.1079
▁الاسرائيلية	-11.1079
שלום	-11.1079
▁מתאימה	-11.108
قاء	-11.1082
סיר	-11.1082
مدرسة	-11.1083
מיס	-11.1083
the	-11.1084
▁أخ	-11.1084
▁הסופי	-11.1085
▁غسل	-11.1087
▁الرحلات	-11.1088
▁המצרי	-11.1089
▁מגן	-11.1091
▁المشكلات	-11.1093
▁شأنه	-11.1094
▁זכר	-11.1094
▁نجد	-11.1097
▁تتوقف	-11.1097
ral	-11.11
خاطر	-11.1101
▁עגבניות	-11.1103
▁פוטנציאל	-11.1104
▁مط	-11.1105
▁המקומות	-11.1105
سيس	-11.1105
▁המודרנית	-11.1106
▁משתתפים	-11.1107
مثال	-11.1107
▁المعلمين	-11.1108
▁الامن	-11.111
▁وإلا	-11.1111
زول	-11.1111
EN	-11.1111
▁الروابط	-11.1113
▁بعين	-11.1113
▁לאינטרנט	-11.1115
▁عادةً	-11.1115
▁67	-11.1115
מסר	-11.1116
▁بقي	-11.1116
▁נסיעות	-11.1117
▁שרוצה	-11.1118
▁מפ	-11.1118
▁יוצאת	-11.1118
▁מחשבות	-11.1118
las	-11.1118
دراج	-11.1119
▁الفائز	-11.1119
مستوطن	-11.1119
▁للمستخدمين	-11.112
مضي	-11.1121
▁الديمقراطي	-11.1122
FA	-11.1122
▁تخيل	-11.1123
▁בחינוך	-11.1123
زعم	-11.1124
▁تفضل	-11.1124
▁لأسباب	-11.1124
כנע	-11.1125
וה	-11.1125
▁הודיע	-11.1125
▁האופן	-11.1125
جمال	-11.1126
▁الفيروس	-11.1126
▁כושר	-11.1127
▁פתוחה	-11.113
دبلوماسي	-11.113
עצמה	-11.1131
▁مقاطعة	-11.1132
▁מועמד	-11.1133
▁חוט	-11.1134
סבל	-11.1134
▁מקורי	-11.1135
▁إست	-11.1137
▁חור	-11.1137
▁إجمالي	-11.1137
ניקה	-11.1138
▁كلب	-11.1139
▁וחלק	-11.1141
عنف	-11.1141
ano	-11.1141
▁خوف	-11.1141
▁מחייב	-11.1142
▁Explorer	-11.1142
▁تترك	-11.1142
ינט	-11.1144
رأس	-11.1144
▁MA	-11.1144
▁أخي	-11.1146
▁עמוקה	-11.1146
▁شبكات	-11.1147
▁המט	-11.1148
وجب	-11.1148
▁المسألة	-11.1149
▁العظمى	-11.1149
▁أغنية	-11.1151
إرهاب	-11.1151
▁الأصل	-11.1152
▁الابتكار	-11.1152
סוס	-11.1153
فك	-11.1156
فشل	-11.1156
▁מורה	-11.1156
▁לכאורה	-11.1157
▁הופכת	-11.1157
▁راحة	-11.1159
▁مرضى	-11.1159
▁معرفته	-11.1161
▁עמדה	-11.1162
▁والمهارات	-11.1162
▁הארוך	-11.1162
▁العدوى	-11.1162
▁الوصف	-11.1163
▁שרק	-11.1164
▁المعالجة	-11.1164
ערכים	-11.1164
▁Ca	-11.1165
▁للن	-11.1166
ys	-11.1167
▁השתתפות	-11.1168
تحول	-11.1168
▁פוסט	-11.1168
▁סביבה	-11.1169
▁البار	-11.1169
▁וללא	-11.117
tre	-11.1171
▁بينهما	-11.1172
▁היפה	-11.1173
▁המנ	-11.1174
دد	-11.1174
▁שורה	-11.1174
▁התאים	-11.1175
▁360	-11.1176
▁والولايات	-11.1178
▁הפעיל	-11.1179
تجدر	-11.118
▁المشاعر	-11.1182
OL	-11.1183
جمل	-11.1184
סיס	-11.1186
مدة	-11.1186
▁שורש	-11.1187
▁מקוונים	-11.1188
שבוע	-11.1188
▁تحذير	-11.1188
▁ריב	-11.1189
▁موثوق	-11.1189
▁ניסו	-11.1189
▁מציאות	-11.1189
▁خبر	-11.119
▁הנחה	-11.1191
▁בפר	-11.1191
נוהל	-11.1191
▁להשת	-11.1193
▁משמשים	-11.1197
▁הניהול	-11.1198
▁العدالة	-11.12
▁واضاف	-11.1201
▁נעצר	-11.1201
قتصاد	-11.1202
▁חילופי	-11.1202
اكتشاف	-11.1203
▁الملايين	-11.1204
قطاع	-11.1205
▁בתעשייה	-11.1206
▁הנדרש	-11.1206
הופ	-11.1207
▁מימון	-11.1208
▁סירב	-11.1208
▁אקדמית	-11.121
▁مز	-11.121
رسوم	-11.121
ood	-11.1211
▁פלסטינית	-11.1211
▁طائرات	-11.1212
▁القريبة	-11.1214
▁الوالدين	-11.1215
▁שקל	-11.1215
▁البيئية	-11.1216
▁תחושת	-11.1217
▁زرع	-11.1217
▁يضمن	-11.122
ven	-11.1222
▁مقاومة	-11.1222
82	-11.1223
ركض	-11.1223
▁تمنع	-11.1223
בוס	-11.1224
▁לערוך	-11.1225
▁التمويل	-11.1226
▁أرسل	-11.1227
▁منصب	-11.1227
▁מילות	-11.1229
▁ייקח	-11.1229
בטל	-11.1231
ium	-11.1232
▁أولاد	-11.1232
▁الكربون	-11.1232
▁הרגל	-11.1234
تار	-11.1235
פוליטי	-11.1235
▁יעשה	-11.1235
▁وفر	-11.1236
تمكن	-11.1237
▁עונש	-11.1239
▁وأشار	-11.1239
חם	-11.1239
▁مواضيع	-11.124
▁As	-11.124
▁آذار	-11.1241
صنف	-11.1242
▁عيون	-11.1242
רוסיה	-11.1243
אמא	-11.1243
▁החקלאות	-11.1243
زان	-11.1244
▁السمع	-11.1244
مؤسسة	-11.1245
▁פסק	-11.1246
▁وثيقة	-11.1249
▁ناجحة	-11.125
▁95	-11.1251
▁تور	-11.1251
בורג	-11.1252
▁חמישי	-11.1252
▁جواز	-11.1253
▁مريح	-11.1254
▁مص	-11.1254
يبة	-11.1255
▁בתחילה	-11.1256
▁يقلل	-11.1257
▁ماري	-11.1259
▁مبادئ	-11.1264
תקנות	-11.1267
هور	-11.127
▁تغطي	-11.127
▁موضع	-11.1272
▁קיר	-11.1272
▁לבעיות	-11.1273
▁المؤلف	-11.1274
log	-11.1275
▁היישום	-11.1276
EL	-11.1276
▁לתקופה	-11.1277
כין	-11.1279
▁הפרעות	-11.1281
▁يستخدمون	-11.1282
▁חופשית	-11.1283
uc	-11.1283
▁الهوية	-11.1284
▁נוכח	-11.1284
▁ציור	-11.1285
▁الأمريكيين	-11.1286
▁כפר	-11.1287
▁אסטרטגיה	-11.1288
سد	-11.1288
▁الشيوعي	-11.129
اكي	-11.1291
▁Word	-11.1292
▁לשחזר	-11.1292
▁המאפיינים	-11.1293
قصد	-11.1294
▁الطابع	-11.1295
▁ليبرمان	-11.1296
▁איטי	-11.1296
خو	-11.1296
طن	-11.1299
تسو	-11.13
رفع	-11.13
▁מסיבה	-11.1302
▁משי	-11.1304
▁Si	-11.1304
▁ننظر	-11.1306
▁تضمن	-11.1306
▁ביטול	-11.1306
▁والر	-11.1307
▁حقائق	-11.1307
▁טעויות	-11.1309
ווית	-11.131
דיל	-11.1312
عجز	-11.1315
זכות	-11.1315
▁השראה	-11.1316
▁بالتعاون	-11.1317
▁القطع	-11.1317
▁אמריקני	-11.1319
▁الْ	-11.132
طال	-11.132
▁הצעד	-11.1321
▁טוענים	-11.1321
אשר	-11.1321
▁البل	-11.1321
71	-11.1322
ריח	-11.1322
▁מבקרים	-11.1324
הפכה	-11.1324
יצה	-11.1325
▁אסטרטגיות	-11.1325
▁أشار	-11.1325
نيس	-11.1326
▁جوجل	-11.1328
LS	-11.133
آل	-11.133
▁מחלקת	-11.1331
▁הקרובה	-11.1331
▁השקעה	-11.1331
▁כאחד	-11.1335
▁מתייחס	-11.1336
تواجد	-11.1336
רצח	-11.1337
▁המוני	-11.1338
▁الام	-11.1339
▁הוספת	-11.1339
▁בריטי	-11.1343
▁إعلانات	-11.1343
▁ولماذا	-11.1343
▁הכלכלית	-11.1343
▁السياق	-11.1346
تحدي	-11.1347
אנ	-11.1348
▁البدني	-11.135
▁סוכנות	-11.135
▁نور	-11.135
▁תועלת	-11.135
▁כאמור	-11.1351
▁طن	-11.1351
زة	-11.1352
▁מוכנה	-11.1353
▁וושינגטון	-11.1354
▁نادرة	-11.1355
▁דיוק	-11.1355
▁بالن	-11.1357
الب	-11.1358
▁الحلم	-11.136
can	-11.1361
▁مسلسل	-11.1362
▁مصنع	-11.1363
▁ميت	-11.1367
▁פלסטין	-11.1367
▁גובה	-11.1368
▁וכדי	-11.1369
▁آن	-11.1369
▁הגדרות	-11.137
אירוע	-11.1372
كور	-11.1373
▁(10	-11.1373
▁השיטה	-11.1374
▁אסד	-11.1375
▁היכרויות	-11.1376
נצל	-11.1377
יצוא	-11.1377
▁אמריקאים	-11.1378
▁מיותר	-11.1378
▁باي	-11.138
▁قُتل	-11.1381
▁سعيدة	-11.1382
▁לחזק	-11.1382
▁اخترت	-11.1382
fe	-11.1383
▁العدل	-11.1383
مشاكل	-11.1384
▁الدولتين	-11.1384
فرق	-11.1385
▁خارجية	-11.1385
▁المرتبة	-11.1385
▁הפחד	-11.1386
▁ארוכות	-11.1386
▁עיני	-11.1388
▁נשימה	-11.139
▁יורד	-11.1391
▁שמגיע	-11.1393
▁מצבים	-11.1394
▁تعليمية	-11.1395
▁תכונה	-11.1396
שפע	-11.14
▁المبادئ	-11.14
▁הרחב	-11.1401
קוף	-11.1401
نشط	-11.1402
▁ني	-11.1402
عون	-11.1403
▁دعوة	-11.1403
▁עצמאית	-11.1403
▁שותף	-11.1405
عية	-11.1411
▁נמכר	-11.1411
ענק	-11.1412
سكين	-11.1412
טיל	-11.1414
חמש	-11.1415
▁اضافية	-11.142
Re	-11.142
▁חמים	-11.1422
▁טל	-11.1423
▁המשמש	-11.1424
ren	-11.1424
▁أغلب	-11.1424
▁مستخدمي	-11.1427
▁الميدان	-11.1427
▁>>	-11.1429
▁ביקר	-11.143
תומכי	-11.1431
▁كأن	-11.1432
▁המערב	-11.1433
▁בתכנית	-11.1433
تضرر	-11.1437
▁متأخر	-11.1439
▁منزلك	-11.1441
شخص	-11.1442
דפים	-11.1448
▁1989	-11.1448
▁التنفيذي	-11.1449
تحمل	-11.145
▁آر	-11.145
מזון	-11.1452
▁ואו	-11.1452
▁העתיק	-11.1452
▁الفيروسات	-11.1453
▁חשיבה	-11.1454
▁التسوق	-11.1454
▁الجماهير	-11.1455
▁الخريجين	-11.1457
لائم	-11.146
▁التربة	-11.146
▁בשי	-11.146
גנטי	-11.146
▁الوسط	-11.1462
▁العصبية	-11.1463
▁انتهاك	-11.1464
▁سيئ	-11.1464
▁بدقة	-11.1464
גמה	-11.1466
מיד	-11.1466
▁מטעם	-11.1467
▁האנגלית	-11.1467
▁الإسلام	-11.1468
فية	-11.1469
▁להבחין	-11.1471
سقط	-11.1472
▁أخطاء	-11.1472
▁كبيرًا	-11.1473
▁בקש	-11.1474
מצו	-11.1475
▁סיר	-11.148
ley	-11.148
تقاعد	-11.1481
رشد	-11.1481
▁כימי	-11.1483
▁האנושית	-11.1484
▁אפר	-11.1485
-0	-11.1485
▁שיעורים	-11.1486
قاوم	-11.1486
▁الاستقلال	-11.1487
▁عوامل	-11.1489
נדה	-11.1489
נשק	-11.149
קורא	-11.149
▁دان	-11.1491
▁השכר	-11.1492
ًّا	-11.1493
▁ידועים	-11.1493
▁למכירה	-11.1493
אמין	-11.1494
كث	-11.1496
74	-11.1496
ler	-11.1496
أة	-11.1496
▁رام	-11.15
دهش	-11.1501
▁الظاهرة	-11.1501
▁وعي	-11.1502
ST	-11.1503
▁أع	-11.1503
▁بق	-11.1504
▁بص	-11.1506
حكام	-11.1506
▁(5	-11.1507
▁الحلول	-11.1507
ةً	-11.1508
روي	-11.1509
▁ثقة	-11.1512
▁תרבותי	-11.1512
بشر	-11.1512
▁للناس	-11.1515
▁So	-11.1516
ובר	-11.1516
▁الأمني	-11.1518
▁700	-11.1521
دمر	-11.1521
▁تدريس	-11.1521
▁والحفاظ	-11.1522
▁מכאן	-11.1522
▁זכוכית	-11.1525
ברה	-11.1526
▁وتعزيز	-11.1526
ליברלי	-11.1527
▁בכירים	-11.1528
פוצ	-11.1528
▁ביצועים	-11.1531
fa	-11.1531
רופא	-11.1533
▁البرية	-11.1533
▁הרגיש	-11.1534
▁حوادث	-11.1535
chi	-11.1536
▁دقة	-11.1537
بلاغ	-11.1538
▁ממליץ	-11.1538
بيد	-11.1538
▁האוצר	-11.154
▁במאבק	-11.154
tes	-11.154
▁التح	-11.154
▁שיעורי	-11.1541
yn	-11.1541
q	-11.1543
▁توقع	-11.1545
برنامج	-11.1545
טוף	-11.1546
▁يكتب	-11.1546
▁وجهات	-11.1547
ولوجية	-11.1548
קרים	-11.1548
▁ועו	-11.1548
ארגוני	-11.155
▁לממש	-11.1552
بريطاني	-11.1555
▁هجمات	-11.1555
▁הסינית	-11.1556
▁هدم	-11.1557
▁שאו	-11.1559
▁המבקרים	-11.1559
▁ומעלה	-11.156
▁במסע	-11.1561
▁להצלחה	-11.1561
ערבים	-11.1562
▁הכרטיס	-11.1564
▁ושי	-11.1565
wa	-11.1567
▁يم	-11.1569
▁الملحق	-11.1571
וציא	-11.1571
▁פרטית	-11.1572
▁בנושאים	-11.1574
סוכנות	-11.1576
▁הירי	-11.1578
חוצה	-11.158
גרו	-11.1581
▁شحن	-11.1582
▁اخت	-11.1584
▁استئجار	-11.1584
▁Chrome	-11.1584
▁السباحة	-11.1585
מטר	-11.1586
▁מתמיד	-11.1588
▁נדיר	-11.159
▁التابع	-11.159
▁עמדות	-11.159
▁לסבול	-11.1591
משטר	-11.1592
▁واحدا	-11.1592
טכנולוגיה	-11.1594
כסף	-11.1594
▁חושבת	-11.1594
سمى	-11.1599
סיקה	-11.1601
▁המוזיאון	-11.1603
av	-11.1604
▁هولندا	-11.1605
▁منظمات	-11.1605
▁הבחור	-11.1606
▁תעשה	-11.1606
رمز	-11.1606
▁הפועלים	-11.1607
TH	-11.1607
حسب	-11.1611
▁تام	-11.1613
▁בקצב	-11.1614
▁البط	-11.1615
▁טכניקות	-11.1616
▁الذات	-11.1617
▁עובדה	-11.1619
▁تمكين	-11.1619
▁למח	-11.162
▁להצביע	-11.162
طير	-11.1622
صبح	-11.1622
▁Bu	-11.1622
סטרי	-11.1622
▁ירו	-11.1623
▁توم	-11.1623
▁Dis	-11.1624
▁والغ	-11.1624
▁الأح	-11.1626
▁ירקות	-11.1626
▁פליטים	-11.1627
▁התחרות	-11.1627
نوع	-11.1628
▁מבקשים	-11.1629
▁להרוס	-11.1629
▁Ph	-11.1629
▁فيجب	-11.163
▁يش	-11.163
דומה	-11.163
▁המזו	-11.1632
▁מושב	-11.1632
מנט	-11.1633
▁המקרה	-11.1634
▁الاحتفال	-11.1635
▁רכש	-11.1635
▁העסקים	-11.1636
▁الطبقة	-11.1636
▁لتصبح	-11.1638
▁الجانبية	-11.164
▁המתח	-11.1641
▁يتكون	-11.1641
منهج	-11.1641
▁ارتباط	-11.1641
▁Jo	-11.1642
▁لوضع	-11.1643
ّم	-11.1644
يغ	-11.1645
▁الاطفال	-11.1646
▁בדו	-11.1647
▁المبكرة	-11.1647
2,000	-11.1648
▁لدفع	-11.1649
▁الأحد	-11.165
▁באמריקה	-11.1652
שוויון	-11.1652
▁تلبية	-11.1653
▁جرى	-11.1654
▁جاءت	-11.1656
▁إم	-11.1656
▁כשל	-11.1656
אבא	-11.1657
▁اللحوم	-11.1657
▁ליטר	-11.1657
▁العملة	-11.1657
▁ליותר	-11.1658
تحقق	-11.1658
▁המורה	-11.1659
▁وعدد	-11.1659
▁לחודש	-11.1659
▁للح	-11.1659
خلص	-11.166
פולי	-11.1661
▁بالع	-11.1662
▁نُ	-11.1662
▁אירופי	-11.1662
ight	-11.1664
ضا	-11.1664
عمار	-11.1665
▁תושב	-11.1666
▁השולחן	-11.1666
▁قادرا	-11.1667
▁הביצועים	-11.1667
▁שמחה	-11.1668
שימוש	-11.1668
▁جمهور	-11.167
רגיל	-11.167
▁أوائل	-11.167
تساءل	-11.1671
ילדים	-11.1673
מבוגרים	-11.1673
מטרי	-11.1673
▁أساليب	-11.1676
עתיד	-11.1678
ختار	-11.168
َر	-11.1681
ولين	-11.1681
▁ציון	-11.1685
رئ	-11.1685
▁طب	-11.1685
▁عل	-11.1686
▁البطن	-11.1687
▁يقتل	-11.1687
رخص	-11.1688
وتر	-11.1688
▁عائلته	-11.1688
▁والعديد	-11.1688
▁שאף	-11.169
تال	-11.1692
שפה	-11.1692
▁الألماني	-11.1692
סור	-11.1692
▁البالغ	-11.1693
▁בגדה	-11.1693
▁الخليج	-11.1693
פון	-11.1695
▁תיירות	-11.1696
▁נציג	-11.1697
▁الخضراء	-11.1698
▁هائلة	-11.1699
▁ארוכים	-11.17
توق	-11.1701
AA	-11.1701
סע	-11.1702
▁حسنا	-11.1702
▁حضور	-11.1703
▁Pi	-11.1707
▁جدار	-11.1707
▁למחוק	-11.1707
▁الأداة	-11.1708
▁כת	-11.1708
▁האקלים	-11.1709
▁ומח	-11.1709
▁السلع	-11.171
▁גבול	-11.1712
▁نبات	-11.1714
▁מות	-11.1715
▁نسب	-11.1715
▁ספטמבר	-11.1716
▁Photoshop	-11.1716
▁يسمع	-11.1717
▁المعالج	-11.1717
▁العصبي	-11.1718
▁نو	-11.1719
▁انتهى	-11.1719
קריא	-11.172
▁بياناتك	-11.1721
▁אפשרית	-11.1722
▁יתכן	-11.1723
ich	-11.1723
▁מוצאים	-11.1724
▁מכון	-11.1724
▁الفوائد	-11.1724
▁قضايا	-11.1724
▁السابع	-11.1724
▁ثابتة	-11.1725
▁לראש	-11.1725
▁מעצב	-11.1726
EA	-11.1727
▁الحادث	-11.1727
▁הנפש	-11.1728
pt	-11.1728
▁المصاب	-11.173
تجاهل	-11.1731
▁مصممة	-11.1731
ليل	-11.1732
▁האנ	-11.1733
▁הכותרת	-11.1734
ضاء	-11.1734
تفوق	-11.1736
▁שלמה	-11.1738
תרו	-11.1738
جاد	-11.174
▁ترجمة	-11.1742
▁לפרסם	-11.1743
גדול	-11.1743
▁الأسهم	-11.1743
משפחה	-11.1744
▁בכיוון	-11.1744
▁صد	-11.1746
▁כשאני	-11.1746
▁בבני	-11.1749
אזרחי	-11.175
מבקר	-11.175
▁يؤ	-11.175
ريخ	-11.1751
שמר	-11.1751
مرض	-11.1751
▁السائل	-11.1751
▁ההזמנה	-11.1751
CC	-11.1752
لتقي	-11.1753
▁اح	-11.1753
#	-11.1753
משתמשים	-11.1754
▁عقود	-11.1754
▁חלל	-11.1755
ult	-11.1756
انظر	-11.1756
هود	-11.176
▁התקשר	-11.176
▁النافذة	-11.1761
▁רובם	-11.1762
قى	-11.1762
ריות	-11.1763
▁للشخص	-11.1765
▁באחת	-11.1765
▁לדון	-11.1766
▁האיכות	-11.1766
نهار	-11.1767
سمح	-11.1768
▁للش	-11.1768
▁החיות	-11.1769
▁يوماً	-11.1769
▁الخلفي	-11.1769
▁International	-11.1771
▁החיסון	-11.1772
▁וכש	-11.1772
▁הדרכה	-11.1772
▁לסוג	-11.1774
▁הצרפתית	-11.1774
▁الخصوص	-11.1774
▁פיזית	-11.1774
▁למרכז	-11.1774
▁Norton	-11.1776
▁עלויות	-11.1778
بما	-11.1779
▁מסגרת	-11.178
▁ورق	-11.178
جام	-11.1781
▁يصدق	-11.1782
▁راجع	-11.1785
▁סטנדרטי	-11.1785
▁السادس	-11.1787
▁הגרמני	-11.1787
▁URL	-11.1788
▁عموما	-11.1788
▁إعدادات	-11.1788
غضب	-11.1788
▁השכלה	-11.1789
▁تأ	-11.179
▁إنني	-11.1791
▁الأربعة	-11.1792
▁נפוץ	-11.1792
▁المستحسن	-11.1793
ris	-11.1793
▁ثمة	-11.1793
צדדי	-11.1796
יוצר	-11.1799
line	-11.1799
▁طلابنا	-11.18
▁הבניין	-11.18
תפו	-11.18
بث	-11.18
▁طلبات	-11.1801
▁גילוי	-11.1806
▁المخطط	-11.1808
IA	-11.1808
غذي	-11.1809
شارة	-11.1809
قضي	-11.1809
▁אה	-11.181
▁سكر	-11.1811
▁الكاتب	-11.1813
▁قل	-11.1813
br	-11.1813
▁ישן	-11.1814
▁מחיי	-11.1814
▁الصفحات	-11.1814
▁الفاكهة	-11.1815
▁כשנ	-11.1816
▁لآخر	-11.1816
▁اليومي	-11.1816
▁האירופית	-11.1816
▁להירשם	-11.1819
▁Mon	-11.182
▁تقف	-11.1821
▁קראו	-11.1822
▁הצג	-11.1824
▁פשוטים	-11.1825
▁يسأل	-11.1826
▁السعي	-11.1828
ותה	-11.1829
▁مشغول	-11.1829
קמה	-11.183
صلاح	-11.1832
▁القادة	-11.1832
▁רגילה	-11.1833
▁שבא	-11.1834
▁للذهاب	-11.1834
▁ליברמן	-11.1834
▁ואחרים	-11.1835
▁بني	-11.1836
▁מסיבות	-11.1838
عتبر	-11.1838
▁הטקסט	-11.1838
▁يمنح	-11.1838
▁تخصص	-11.1838
▁חנות	-11.1839
▁מגיל	-11.1839
חמאס	-11.184
▁للقانون	-11.1841
קם	-11.1842
ضار	-11.1842
خجل	-11.1842
▁מסמך	-11.1843
DA	-11.1843
غار	-11.1844
رمي	-11.1844
▁Bitcoin	-11.1845
▁متعلقة	-11.1847
תוכנית	-11.1848
▁فأنا	-11.1848
▁מהבית	-11.1849
▁نجح	-11.185
▁فو	-11.185
▁בשלוש	-11.1852
عثر	-11.1853
▁נפטר	-11.1853
▁صادق	-11.1853
▁תוכנות	-11.1854
▁גילו	-11.1854
▁جريمة	-11.1855
▁איזון	-11.1855
▁الإجمالي	-11.1856
זרי	-11.1856
גרמניה	-11.1857
قرر	-11.1857
▁מהלך	-11.1859
▁تشو	-11.1861
▁اكتساب	-11.1861
▁Of	-11.1861
▁בריאה	-11.1861
▁خير	-11.1862
▁جين	-11.1863
▁ضريبة	-11.1863
▁שמר	-11.1864
יהודים	-11.1864
نّ	-11.1866
▁טיפולים	-11.1866
فض	-11.1868
▁ניסוי	-11.1869
▁الترفيه	-11.1871
▁المعقدة	-11.1871
▁הבטן	-11.1872
mp	-11.1872
اسة	-11.1872
מדינות	-11.1874
▁אוגוסט	-11.1874
▁סכנה	-11.1874
▁יגיע	-11.1875
בעת	-11.1876
▁וזאת	-11.1877
וטה	-11.1878
▁تشجيع	-11.1878
▁اقتصادية	-11.1878
▁דמויות	-11.188
▁ההוראה	-11.1881
▁City	-11.1881
▁היפני	-11.1882
حاج	-11.1882
▁القيود	-11.1882
▁הפרסום	-11.1882
▁r	-11.1884
▁מחליט	-11.1885
▁אמונה	-11.1885
▁לשירות	-11.1886
▁יעלה	-11.1888
▁פרופיל	-11.189
بية	-11.189
▁שופט	-11.1891
▁שבין	-11.1892
▁הרג	-11.1892
▁הסוג	-11.1893
פרה	-11.1893
ib	-11.1893
ّه	-11.1894
سق	-11.1895
ربح	-11.1897
גובה	-11.1897
▁وكأن	-11.1897
▁المستويات	-11.1898
غرام	-11.19
קומו	-11.1901
▁האקדמי	-11.1902
חשבון	-11.1903
▁במערב	-11.1903
▁معلوماتك	-11.1903
▁מופיעים	-11.1904
▁עבורך	-11.1904
▁المدنيين	-11.1905
ולות	-11.1905
▁الغالب	-11.1906
חליף	-11.1906
▁Ta	-11.1906
▁בחומר	-11.1907
▁בעצמו	-11.1908
▁لتنفيذ	-11.1908
▁قلبي	-11.1909
CT	-11.191
וקי	-11.1911
▁الوسائل	-11.1913
▁رسمية	-11.1914
▁تعليقات	-11.1918
▁נפט	-11.1918
▁בבעלות	-11.1919
▁במס	-11.192
يًّا	-11.1925
ارك	-11.1926
▁חבל	-11.1929
▁ملاحظات	-11.1929
▁יומיים	-11.193
יסטית	-11.193
▁المعتاد	-11.193
خام	-11.1931
▁שבר	-11.1932
▁مقالات	-11.1933
▁صالح	-11.1934
▁أعمارهم	-11.1935
ami	-11.1935
▁רוסי	-11.1936
▁47	-11.1936
▁صيف	-11.1936
▁الجريمة	-11.1938
▁فنحن	-11.1941
mail	-11.1941
▁القصص	-11.1941
▁للخطر	-11.1941
▁تعبير	-11.1942
מידע	-11.1942
▁הסימפטומים	-11.1944
▁נתיב	-11.1945
▁הסחר	-11.1945
صم	-11.1945
▁إظهار	-11.1947
▁ממשל	-11.1947
▁اليابانية	-11.1949
مشي	-11.1949
▁ינואר	-11.195
ستراتيجي	-11.195
שוק	-11.1951
▁بإنشاء	-11.1951
▁الصغار	-11.1951
عزز	-11.1952
▁לכאן	-11.1955
▁הפופולרי	-11.1955
▁ميزانية	-11.1957
רגו	-11.1957
▁מועבר	-11.1957
▁أمريكية	-11.1957
▁הבקשה	-11.1957
▁عليكم	-11.1957
▁חקירה	-11.1958
▁הוכיח	-11.1958
التهاب	-11.196
!)	-11.1961
حزن	-11.1961
▁القبول	-11.1961
▁جنسي	-11.1962
▁המשקל	-11.1964
▁الأمير	-11.1964
פירות	-11.1964
▁פריז	-11.1964
▁לנושא	-11.1965
؟”	-11.1965
شاعر	-11.1966
▁المصنعة	-11.1966
▁فإنك	-11.1966
▁נשי	-11.1968
▁الخطوط	-11.1969
▁عربي	-11.1969
نَ	-11.197
ier	-11.1972
▁ימין	-11.1972
▁המודיעין	-11.1972
▁تكرار	-11.1973
▁اقتراح	-11.1973
▁המבט	-11.1973
▁משרת	-11.1973
▁الأوراق	-11.1975
▁ساحة	-11.1975
▁الساعات	-11.1975
▁עישון	-11.1976
▁ראיות	-11.1978
▁خريطة	-11.1978
▁דוקטורט	-11.1979
פריט	-11.1979
▁يَ	-11.198
אובייקט	-11.1981
▁חכמים	-11.1981
▁הצעירים	-11.1982
▁جن	-11.1984
▁המכ	-11.1985
▁لأنّ	-11.1985
▁השכ	-11.1987
▁يقومون	-11.1988
▁בתקשורת	-11.1989
▁شقيق	-11.1989
▁زعيم	-11.1989
▁קרח	-11.199
▁מרחוק	-11.199
▁اطلاق	-11.1991
CD	-11.1991
▁الشرقي	-11.1991
▁המבוסס	-11.1992
▁للعلاج	-11.1993
▁And	-11.1996
▁st	-11.1999
▁قالوا	-11.2001
▁الأولاد	-11.2001
עשה	-11.2003
int	-11.2005
▁במדיניות	-11.2006
▁לקוח	-11.2006
▁منفصلة	-11.2006
▁פורט	-11.2008
▁מאמרים	-11.2008
▁ברשות	-11.2009
ham	-11.2012
▁سحر	-11.2013
ארט	-11.2014
▁אנושי	-11.2015
ney	-11.2016
מותה	-11.2019
▁Ex	-11.202
▁نظم	-11.2021
▁ينمو	-11.2021
▁المطر	-11.2021
▁يجلس	-11.2023
▁المستقبلية	-11.2023
▁מיוחדות	-11.2023
إمكان	-11.2025
▁יישומים	-11.2029
▁המשק	-11.2029
▁طراز	-11.2032
שיעור	-11.2032
ake	-11.2032
▁העביר	-11.2034
▁המיני	-11.2034
▁تتكون	-11.2035
▁موظفي	-11.2036
فاق	-11.2036
لوس	-11.204
زرع	-11.204
ديم	-11.2041
زية	-11.2042
ודו	-11.2042
▁الخريف	-11.2043
צרו	-11.2044
▁סיטי	-11.2044
eb	-11.2044
▁לארגן	-11.2045
▁أواخر	-11.2046
▁נג	-11.2046
▁المقرر	-11.2047
▁كميات	-11.2047
יעו	-11.2047
▁אוטומטית	-11.2047
▁Media	-11.2048
▁-1	-11.2049
▁الأنظمة	-11.2051
▁Inc	-11.2051
▁؟؟	-11.2052
؟؟	-11.2052
▁قيود	-11.2053
▁تلقائيًا	-11.2053
▁חולי	-11.2054
علي	-11.2056
ولوجي	-11.2057
▁الأشكال	-11.2058
▁مالك	-11.2061
حضار	-11.2061
▁بيننا	-11.2061
▁وبشكل	-11.2062
זין	-11.2063
▁يفضل	-11.2063
▁לרוץ	-11.2066
▁معقولة	-11.2067
▁עשויות	-11.2067
▁التغيرات	-11.2068
▁مزايا	-11.2068
خمس	-11.2069
▁לפלסטינים	-11.2069
▁الأسواق	-11.2069
בון	-11.2069
▁הרגשתי	-11.2069
▁תראה	-11.2071
▁استجابة	-11.2073
▁תרגיל	-11.2073
▁السورية	-11.2074
سية	-11.2074
▁كفاءة	-11.2074
רחיב	-11.2075
▁تجديد	-11.2075
▁الإدارية	-11.2076
ting	-11.2077
▁מצחיק	-11.2077
▁المفتاح	-11.2078
▁פגע	-11.208
▁مشابهة	-11.2082
▁מכונת	-11.2082
▁ويُ	-11.2084
▁מדיני	-11.2084
▁הורה	-11.2084
▁مواطني	-11.2085
▁אדיר	-11.2088
بالإنجليزية	-11.2089
▁הסיוע	-11.209
ائس	-11.2093
▁זהות	-11.2093
▁אקדמי	-11.2093
أر	-11.2093
هدف	-11.2095
▁האיטלקי	-11.2096
▁חוויות	-11.2097
▁מלאים	-11.2097
▁لج	-11.2097
صرخ	-11.2098
وصف	-11.2101
▁עצוב	-11.2103
تولى	-11.2103
▁אנד	-11.2103
▁أوامر	-11.2104
▁מייד	-11.2104
▁هاتفك	-11.2106
יטר	-11.2106
▁מוכרים	-11.2106
▁الإيطالية	-11.2106
▁השפעות	-11.2106
▁נהיגה	-11.2107
▁נבדק	-11.2107
ناها	-11.2107
▁קליפורניה	-11.2109
▁ומחקר	-11.211
▁فعلي	-11.211
ker	-11.211
▁مبدأ	-11.2111
▁غار	-11.2112
▁وتن	-11.2113
▁ويبدو	-11.2113
▁الاستماع	-11.2118
جودة	-11.2122
▁خطورة	-11.2125
אדי	-11.2125
▁وكأنه	-11.2127
▁דירוג	-11.213
▁مترجم	-11.2132
TO	-11.2132
سيطر	-11.2134
▁الخيال	-11.2135
▁وقوع	-11.2135
▁החופשי	-11.2135
▁ولادة	-11.2135
▁פיתח	-11.2136
▁בוגרים	-11.2136
▁למדינות	-11.2137
IR	-11.2137
▁עידן	-11.2138
▁بنفسه	-11.2139
▁تنظر	-11.214
▁المشورة	-11.214
▁يدل	-11.214
▁شاملة	-11.2141
▁תנועות	-11.2141
▁יכלו	-11.2142
▁أظهر	-11.2142
עלם	-11.2142
חנה	-11.2143
▁الأكل	-11.2143
▁جرعة	-11.2143
▁מתקדם	-11.2144
▁طبي	-11.2144
امية	-11.2145
▁السلامة	-11.2151
▁שגוי	-11.2151
▁لنفسك	-11.2152
▁لرؤية	-11.2153
▁أعط	-11.2153
ציוני	-11.2154
▁קהל	-11.2155
קטין	-11.2156
▁מעורבים	-11.2156
▁المعيشة	-11.2156
▁ערבית	-11.2157
لزم	-11.2158
▁الرقمي	-11.2158
גנת	-11.2159
نشر	-11.2159
▁לארה	-11.216
▁העכבר	-11.216
▁كازينو	-11.2161
▁الزيارة	-11.2161
▁חדרים	-11.2162
נבו	-11.2164
▁تقريباً	-11.2165
▁حرف	-11.2166
▁الصليب	-11.2167
▁לעורר	-11.2167
▁מועמדים	-11.2168
▁0.5	-11.2168
▁עצות	-11.2168
▁ממשיכה	-11.2169
يص	-11.2169
דרי	-11.2169
▁البرمجيات	-11.217
▁ומאפשר	-11.217
בדרך	-11.2171
▁נסו	-11.2171
▁הכללים	-11.2171
▁לארץ	-11.2172
שיבה	-11.2172
▁الزوار	-11.2173
▁דיון	-11.2173
▁للتعامل	-11.2174
▁حقن	-11.2174
תיק	-11.2175
▁النمط	-11.2175
▁(3)	-11.2177
▁يميل	-11.2178
▁الجهات	-11.218
ire	-11.2181
▁للب	-11.2181
לידה	-11.2182
▁والل	-11.2182
▁النادي	-11.2182
טית	-11.2182
▁تتوقع	-11.2182
יחסים	-11.2183
▁ספציפיים	-11.2183
▁نسمة	-11.2184
حرف	-11.2184
▁الأرجنتين	-11.2185
مشارك	-11.2185
amp	-11.2186
סתר	-11.2187
▁עוברים	-11.2187
▁النقر	-11.2187
אכזב	-11.2188
حاكم	-11.2188
חסר	-11.2189
▁דעות	-11.2191
▁ووفقا	-11.2192
▁מתעורר	-11.2192
▁يخلق	-11.2193
▁בהר	-11.2194
▁فترات	-11.2195
▁טרם	-11.2196
▁عد	-11.2196
שורש	-11.2199
▁סמכות	-11.22
▁חוקר	-11.2202
▁תוכנת	-11.2203
ُن	-11.2203
▁الرقص	-11.2205
▁زالت	-11.2207
▁المقاومة	-11.2208
מכת	-11.2208
▁הפעולות	-11.2209
ومة	-11.221
אמצעי	-11.221
מניע	-11.221
▁الكائنات	-11.2211
St	-11.2212
מאה	-11.2213
▁ההשפעות	-11.2213
▁נהיה	-11.2215
▁לרגע	-11.2216
مُ	-11.2218
▁נשכח	-11.2219
SD	-11.2219
▁תחרותי	-11.222
مجموعة	-11.2221
▁הנדסה	-11.2221
▁טכנולוגיית	-11.2221
ארגון	-11.2222
▁העברה	-11.2227
▁רגיש	-11.2228
تأثير	-11.2228
▁لزيارة	-11.2232
▁הכוכבים	-11.2232
▁משפחתי	-11.2233
▁الميزانية	-11.2233
▁אביב	-11.2234
▁אבנים	-11.2234
כוכב	-11.2236
ئت	-11.2237
▁באיראן	-11.2237
بّ	-11.2238
▁الأحياء	-11.2238
▁التوالي	-11.2238
▁والعلوم	-11.2238
▁الحملة	-11.2241
فيد	-11.2241
َن	-11.2242
פיצוץ	-11.2243
▁طاولة	-11.2243
▁להירגע	-11.2244
زيم	-11.2245
▁2-	-11.2245
תוצאות	-11.2246
▁وفقاً	-11.2247
▁Cloud	-11.2249
MO	-11.2249
-24	-11.225
ייק	-11.225
لاحظ	-11.225
עונים	-11.225
▁المصنع	-11.2253
عمر	-11.2253
חיים	-11.2254
▁הולכת	-11.2254
ستا	-11.2254
▁מזיק	-11.2256
▁הסדרה	-11.2257
▁يجمع	-11.2257
▁الملح	-11.2259
رحم	-11.2259
gr	-11.226
▁الإطار	-11.226
▁אתגר	-11.2261
טוס	-11.2261
▁נוסע	-11.2263
SO	-11.2263
▁عقب	-11.2264
▁לזמן	-11.2264
قبض	-11.2265
▁الشيخوخة	-11.2265
גנו	-11.2265
▁מעניק	-11.2265
▁ויו	-11.2266
▁وبحسب	-11.2266
▁وسيكون	-11.2267
فيس	-11.2267
غرق	-11.2267
▁النماذج	-11.2267
▁העלות	-11.2267
▁اللاعب	-11.2268
▁الفرد	-11.2268
▁ينجح	-11.227
▁بزيارة	-11.2271
▁يساعدك	-11.2271
عوا	-11.2273
تأمين	-11.2276
▁בטלוויזיה	-11.2276
▁افضل	-11.2277
▁فخور	-11.2277
▁تخصيص	-11.2279
▁المصمم	-11.2279
▁النهج	-11.2279
▁تنتظر	-11.228
جهاز	-11.228
▁שהגיע	-11.228
▁مالية	-11.2281
שכל	-11.2282
▁סיכונים	-11.2283
MT	-11.2284
▁הטכנולוגי	-11.2285
صمت	-11.2286
قياد	-11.2287
▁Human	-11.2287
ax	-11.2288
▁أَ	-11.2289
קשות	-11.229
▁حذر	-11.229
▁مساء	-11.2292
▁משפטית	-11.2292
יטים	-11.2293
▁לחתוך	-11.2294
▁قلوب	-11.2295
משמעות	-11.2296
אפי	-11.2297
▁בתשלום	-11.2297
▁סינ	-11.2297
▁ניצח	-11.2298
جرى	-11.2298
▁خلية	-11.2299
▁הגברים	-11.2299
ings	-11.23
▁الفصول	-11.2303
▁מחולק	-11.2307
▁תופעה	-11.2308
דוק	-11.2308
قبة	-11.2309
▁בפריז	-11.2309
تطرف	-11.231
▁مصطلح	-11.2312
מג	-11.2313
▁האזרחי	-11.2313
▁הסכום	-11.2314
van	-11.2314
▁الاستمتاع	-11.2315
▁هما	-11.2315
تور	-11.2315
▁والإدارة	-11.2316
يتش	-11.2316
▁سرية	-11.2317
ef	-11.2318
▁לביטוח	-11.2319
▁מעדיף	-11.2321
▁באירוע	-11.2321
▁51	-11.2325
▁בסיסי	-11.2327
هان	-11.2327
▁الفئة	-11.2328
▁המודל	-11.2328
▁سنويا	-11.2328
▁יופי	-11.2329
DS	-11.2329
▁רוברט	-11.233
ct	-11.233
▁נגיש	-11.2331
▁הכרה	-11.2331
▁غالبية	-11.2331
▁הדיגיטלי	-11.2332
▁الامتحان	-11.2332
▁הפגישה	-11.2332
▁חקלאי	-11.2333
▁التحول	-11.2334
▁السر	-11.2334
▁وشك	-11.2337
▁ניקוי	-11.2337
▁מחבר	-11.2338
▁تشا	-11.2338
▁Ho	-11.2342
▁הפק	-11.2342
▁התח	-11.2343
▁בוודאי	-11.2343
פשר	-11.2344
▁التقليدي	-11.2345
▁הגידול	-11.2346
tter	-11.2347
▁השליטה	-11.2349
▁الساحة	-11.2349
יזמים	-11.2352
▁وو	-11.2352
أسر	-11.2353
▁קלי	-11.2355
ترا	-11.2357
▁مطعم	-11.2358
▁مرافق	-11.2358
▁ثلث	-11.2359
▁עשרים	-11.2359
▁المباشرة	-11.236
דמות	-11.2362
בעל	-11.2362
▁العائلات	-11.2365
תאריך	-11.2366
▁يتعرض	-11.2369
▁غياب	-11.2369
▁כיסוי	-11.237
▁التحتية	-11.237
▁החול	-11.2371
▁נדרשים	-11.2372
▁وحل	-11.2372
▁בעבודת	-11.2375
طبيب	-11.2377
به	-11.2377
▁אסטרטגי	-11.2377
400	-11.2378
פוג	-11.2379
حساب	-11.2379
ליות	-11.2379
▁היעדר	-11.238
▁وغالبا	-11.2381
عاش	-11.2382
▁سقوط	-11.2382
▁נוסדה	-11.2382
▁מני	-11.2384
ورو	-11.2384
▁דוא	-11.2384
▁الأر	-11.2386
כבה	-11.2387
חיזוק	-11.2387
▁פרנק	-11.2387
▁לברוח	-11.2391
ok	-11.2392
▁דיפלומטי	-11.2393
▁اضطراب	-11.2393
▁היקר	-11.2394
▁רפואה	-11.2396
▁عال	-11.2397
▁لتناول	-11.2397
▁تدرس	-11.2399
▁الوطن	-11.24
ذرة	-11.2401
▁يدرك	-11.2401
يسي	-11.2401
▁מותג	-11.2404
▁الطاولة	-11.2404
▁مير	-11.2404
▁مازن	-11.2404
TC	-11.2406
فيديو	-11.2406
▁سكن	-11.2407
▁ביצע	-11.2407
▁שוחרר	-11.2407
▁راي	-11.2407
▁معتمدة	-11.2409
سيا	-11.2409
▁خرج	-11.2409
צורות	-11.241
▁עמית	-11.2411
▁الإجهاد	-11.2411
▁خريجي	-11.2412
דס	-11.2414
▁קש	-11.2414
ost	-11.2416
▁والمزيد	-11.242
אירופה	-11.242
▁حزمة	-11.2421
▁متوفرة	-11.2421
▁العروض	-11.2422
▁دروس	-11.2423
▁سجن	-11.2423
▁البسيطة	-11.2423
▁התחתון	-11.2423
▁التى	-11.2423
▁תוספי	-11.2424
نيت	-11.2424
▁الشديد	-11.2424
דיכאון	-11.2424
▁وأي	-11.2426
▁الإيمان	-11.2427
חפש	-11.2428
▁הצלב	-11.2429
▁مقاتل	-11.2429
היה	-11.2431
▁בשטחים	-11.2432
מזג	-11.2432
سائل	-11.2432
ونيا	-11.2434
▁أبعد	-11.2434
علق	-11.2434
שמאל	-11.2437
▁راض	-11.2438
ستو	-11.2438
▁الذكي	-11.244
▁الاستجابة	-11.244
ويد	-11.2441
▁שור	-11.2441
▁אנוש	-11.2443
▁ديفيد	-11.2444
▁האח	-11.2445
ds	-11.2445
▁העסקה	-11.2445
▁ונשים	-11.2445
יומן	-11.2445
aw	-11.2445
▁الأولي	-11.2446
כרו	-11.2446
شيط	-11.2448
▁ולעשות	-11.2449
RI	-11.245
كوب	-11.245
פצצה	-11.2451
▁خصم	-11.2451
▁מעיד	-11.2452
▁طاقم	-11.2455
ثم	-11.2455
▁صلى	-11.2455
▁ידני	-11.2456
ضغوط	-11.2456
رصد	-11.2458
▁חרדה	-11.246
IL	-11.246
▁سلامة	-11.2463
مّ	-11.2463
זת	-11.2463
▁מכסה	-11.2465
▁السريعة	-11.2466
تسع	-11.2466
سعى	-11.2467
▁يرفض	-11.2467
▁הביניים	-11.2467
▁ברו	-11.2467
▁רוחני	-11.2467
אולוגי	-11.2468
DI	-11.2472
▁الطفولة	-11.2476
▁المحيطة	-11.2477
تطوع	-11.2477
▁המורכב	-11.2477
▁الأمثل	-11.2477
▁פיל	-11.2477
מולדת	-11.2478
נער	-11.2478
▁לעת	-11.2478
פרטי	-11.2478
▁Pri	-11.2479
▁الاستخبارات	-11.248
▁المؤكد	-11.248
▁التعليمات	-11.2481
▁افتتاح	-11.2482
▁למו	-11.2482
▁מצביע	-11.2482
▁مخصصات	-11.2482
▁مهام	-11.2483
▁مليئة	-11.2484
▁OS	-11.2485
▁أوراق	-11.2488
▁et	-11.2488
▁לשכור	-11.2488
اتفاق	-11.2489
▁يصف	-11.249
▁وين	-11.2491
▁عناوين	-11.2491
▁المثيرة	-11.2492
لس	-11.2493
▁מחזיק	-11.2493
حركة	-11.2493
נרצח	-11.2494
▁شامل	-11.2494
▁di	-11.2495
▁לשבור	-11.2496
▁תופס	-11.2496
▁يفقد	-11.2497
«	-11.2498
תכונות	-11.2499
▁התקציב	-11.2499
▁חוזרים	-11.2499
דמוקרטיה	-11.25
▁טיסות	-11.2501
כניס	-11.2501
▁הדרישות	-11.2502
▁وحسب	-11.2503
▁التّ	-11.2503
▁ניכר	-11.2504
▁באיטליה	-11.2504
▁مقدار	-11.2504
▁المعهد	-11.2505
▁فيسبوك	-11.2506
حيط	-11.2507
ותיהם	-11.2507
▁أبيض	-11.2508
▁תשובות	-11.2509
▁חזון	-11.251
▁אמין	-11.251
▁שאינן	-11.2511
▁الحجر	-11.2512
▁لجمع	-11.2513
▁لنقل	-11.2513
▁ניידים	-11.2513
▁הפקולטה	-11.2513
▁יצ	-11.2514
▁التغلب	-11.2514
▁الروس	-11.2515
▁تقلق	-11.2516
فلسطين	-11.2517
▁شباط	-11.2518
عترف	-11.2518
ויכוח	-11.252
▁ברכב	-11.252
▁הלמידה	-11.252
▁شهرة	-11.2522
עלות	-11.2523
▁בחלל	-11.2523
▁הטמפרטורה	-11.2524
▁تتحول	-11.2525
אנס	-11.2527
ؤدي	-11.2527
▁עזב	-11.2528
▁الاستعداد	-11.2529
▁הזיכרון	-11.253
מכשול	-11.253
▁PhenQ	-11.2533
▁متصل	-11.2537
▁بتقديم	-11.2538
ara	-11.2539
ديل	-11.2541
fer	-11.2544
▁لأجل	-11.2544
▁حجر	-11.2544
▁בסוג	-11.2544
قَ	-11.2545
أنت	-11.2545
▁وعلم	-11.2545
تعب	-11.2546
יקום	-11.2547
▁السياسات	-11.255
▁תגיד	-11.2552
▁آل	-11.2553
▁الطابق	-11.2553
فرض	-11.2557
والد	-11.2557
▁מייקל	-11.2558
▁مرتبطة	-11.2558
מקומות	-11.2559
טורי	-11.256
▁דיגיטלי	-11.2562
▁טבעית	-11.2564
▁تحكم	-11.2564
▁הודיעה	-11.2564
▁اختلاف	-11.2567
قواعد	-11.2569
▁התע	-11.257
תאהב	-11.2572
▁להורג	-11.2573
▁להגנה	-11.2574
ning	-11.2574
▁מרחק	-11.2574
▁للجمهور	-11.2575
▁الجهود	-11.2575
סמן	-11.2575
▁החקירה	-11.2576
▁שכולם	-11.2577
▁כניסת	-11.2578
רצון	-11.2578
▁נבנה	-11.2578
rop	-11.2579
▁الترجمة	-11.2579
תינוק	-11.258
כימיה	-11.2582
עודד	-11.2582
מלחמה	-11.2582
▁العب	-11.2583
▁קילומטרים	-11.2583
▁الجبل	-11.2584
▁with	-11.2584
▁מרוצה	-11.2584
▁للدولة	-11.2584
app	-11.2584
▁לשתי	-11.2584
▁Security	-11.2589
▁الصحافة	-11.259
▁تخطط	-11.2591
▁ניס	-11.2591
▁القريب	-11.2593
טיפ	-11.2594
وضح	-11.2594
TM	-11.2595
▁בור	-11.2595
▁إلقاء	-11.2597
▁מצפים	-11.2597
▁سف	-11.2598
▁ملم	-11.2598
מדי	-11.2599
▁(6	-11.26
▁ניסה	-11.2602
▁האות	-11.2602
▁לאשר	-11.2604
▁ציפור	-11.2604
▁السفارة	-11.2606
▁النصائح	-11.2607
▁חלון	-11.2607
▁מעשה	-11.2608
تأثر	-11.2608
▁الفيسبوك	-11.2608
▁غذائي	-11.2608
▁סופי	-11.261
ial	-11.261
ذك	-11.2611
شترك	-11.2611
▁أوكرانيا	-11.2612
دش	-11.2612
▁تخطيط	-11.2612
▁الغضب	-11.2613
▁بذل	-11.2614
▁המודעות	-11.2615
▁מפסיק	-11.2616
وجّه	-11.2616
▁תגיות	-11.2618
▁سفينة	-11.2618
▁القرص	-11.2618
▁مستشار	-11.2621
▁עסקית	-11.2621
▁إعلام	-11.2623
▁משה	-11.2624
▁جذب	-11.2626
▁كريس	-11.2626
▁הקצר	-11.2627
▁ויי	-11.2627
▁מזהה	-11.2629
▁الأليفة	-11.2629
▁التطوير	-11.263
▁صحفي	-11.2631
▁1980	-11.2631
▁רדיו	-11.2632
▁النشر	-11.2633
▁قطار	-11.2633
▁לצייר	-11.2633
▁المحمولة	-11.2633
▁Post	-11.2634
درك	-11.2636
כני	-11.2638
▁הדמוקרטיה	-11.2639
▁يركز	-11.2639
دراس	-11.264
low	-11.2641
إي	-11.2642
▁أسس	-11.2643
▁תלויה	-11.2645
شرق	-11.2645
▁السائق	-11.2646
اصر	-11.2646
▁الراهن	-11.2647
form	-11.2647
ייד	-11.2651
▁طا	-11.2651
▁الإسبانية	-11.2651
▁شئ	-11.2652
▁العبرية	-11.2652
טופ	-11.2653
▁מושלמת	-11.2653
לצ	-11.2655
[4]	-11.2658
دعي	-11.2659
▁الإله	-11.2659
חופש	-11.2659
▁לפר	-11.266
▁ממוקד	-11.266
ציע	-11.2661
حمد	-11.2663
▁صواريخ	-11.2664
▁פירושו	-11.2664
▁يلزم	-11.2664
▁בסעיף	-11.2664
▁השער	-11.2666
▁הצדק	-11.2666
وء	-11.2666
▁קניות	-11.2668
▁הצהריים	-11.2669
▁التمرين	-11.2669
▁סימני	-11.2669
▁פרופ	-11.267
▁يدعو	-11.2671
إنسان	-11.2671
▁كين	-11.2671
صا	-11.2673
רוויח	-11.2674
▁בחודשים	-11.2674
وسي	-11.2674
▁ببعض	-11.2677
רבים	-11.2679
فخ	-11.268
نشأ	-11.2681
אלקטרו	-11.2681
▁كاميرا	-11.2682
משבר	-11.2684
משפחת	-11.2684
אמה	-11.2685
▁לרפואה	-11.2685
▁الأحوال	-11.2685
▁ייתן	-11.2686
▁ובמיוחד	-11.2686
▁תחומים	-11.2686
▁Ac	-11.2686
▁المحاسبة	-11.2687
▁مسح	-11.2687
▁והחל	-11.2688
▁غضب	-11.2688
لز	-11.2688
▁Live	-11.269
كره	-11.2691
קופ	-11.2693
▁وطلب	-11.2693
אנשי	-11.2694
جوز	-11.2695
▁חופשה	-11.2696
▁دواء	-11.2696
▁روبرت	-11.2699
וויל	-11.2699
ندو	-11.2699
HA	-11.27
▁חוקית	-11.2701
▁أميركا	-11.2702
air	-11.2702
▁שלם	-11.2702
טוני	-11.2703
▁תשע	-11.2703
▁גאה	-11.2704
فاف	-11.2706
وبا	-11.2707
▁הבנקים	-11.2708
▁العقلية	-11.2708
▁בקשות	-11.2708
▁وكتب	-11.2709
צף	-11.2709
▁איסוף	-11.271
زوج	-11.2711
▁لخلق	-11.2713
▁انتباه	-11.2713
▁الدوليين	-11.2713
MD	-11.2714
▁זמנים	-11.2714
عاني	-11.2714
▁حساسية	-11.2716
▁بناءً	-11.2716
▁وإسرائيل	-11.2717
חמישה	-11.2718
ذار	-11.2718
-80	-11.2721
▁II	-11.2721
▁قاموا	-11.2721
▁كريم	-11.2721
▁מפחד	-11.2722
▁אינטראקציה	-11.2722
▁מפגש	-11.2723
▁ذاتها	-11.2724
hu	-11.2724
▁190	-11.2725
▁كرا	-11.2726
▁מוקד	-11.2726
▁الباردة	-11.2728
דיכוי	-11.273
▁للحد	-11.273
▁הטורקי	-11.273
קוק	-11.2731
▁محلية	-11.2732
▁Or	-11.2733
▁اقتصادي	-11.2734
ust	-11.2735
▁الحلقة	-11.2736
מאות	-11.2736
▁اد	-11.2736
▁שמעתי	-11.2737
מוז	-11.2737
▁הפעלת	-11.2737
▁תמורת	-11.2738
▁הער	-11.274
▁سمك	-11.274
▁مسؤولة	-11.274
▁מרגישה	-11.2742
▁نادي	-11.2742
שנות	-11.2744
▁غادر	-11.2744
▁הקיר	-11.2745
▁לשרוד	-11.2745
טק	-11.2747
ווא	-11.2747
מוסד	-11.2747
▁شائع	-11.2747
▁בינלאומיות	-11.2747
▁مكونات	-11.2748
▁המנוע	-11.2749
▁السينما	-11.2749
▁التلقائي	-11.275
▁فارغة	-11.2751
▁מאפיינים	-11.2752
▁הוגן	-11.2752
▁CC	-11.2752
▁בשלום	-11.2753
▁עוזב	-11.2756
▁להריון	-11.2757
▁הפרש	-11.2759
▁פוליטיים	-11.2759
▁سلبية	-11.2759
פסיכולוג	-11.276
▁כס	-11.2761
▁מזמן	-11.2762
▁2014.	-11.2764
▁شق	-11.2765
▁ומספר	-11.2766
قاط	-11.2769
▁משותפים	-11.2769
طموح	-11.2769
▁المثل	-11.277
▁חייל	-11.277
▁للتو	-11.2771
▁المجر	-11.2772
▁הסוף	-11.2773
▁نشط	-11.2773
▁וד	-11.2773
▁لإنتاج	-11.2774
זול	-11.2778
▁הבנתי	-11.2778
▁נמצאו	-11.2779
▁ללחוץ	-11.2779
▁הדר	-11.278
סקו	-11.2782
▁ניצחון	-11.2784
!!!	-11.2784
▁تابع	-11.2785
▁איננה	-11.2786
وير	-11.2786
نر	-11.2787
تناقض	-11.2787
▁הפרו	-11.2787
▁איתה	-11.279
בשל	-11.279
▁لحقوق	-11.279
▁מעת	-11.2791
▁بالمقارنة	-11.2792
▁ברא	-11.2792
▁בינינו	-11.2793
خلف	-11.2793
ound	-11.2793
حرج	-11.2795
▁הבירה	-11.2795
ink	-11.2797
▁يرتبط	-11.2797
▁הדגיש	-11.2799
صيد	-11.2799
▁السرية	-11.28
זכה	-11.28
▁للسلام	-11.2801
dr	-11.2801
sis	-11.2801
تدفق	-11.2802
▁للدراسة	-11.2802
▁عمق	-11.2803
▁رأسه	-11.2803
▁باتجاه	-11.2804
▁שמישהו	-11.2805
▁PC	-11.2806
▁اما	-11.2807
▁شنومكس	-11.2808
▁آخرون	-11.2808
ציבור	-11.2811
▁مكتبة	-11.2811
وكس	-11.2812
مسؤول	-11.2813
▁إجازة	-11.2815
▁טען	-11.2815
▁אפריל	-11.2816
ديس	-11.2817
▁أوضح	-11.2818
כית	-11.2819
▁פורסם	-11.282
▁سابقا	-11.282
▁الساحل	-11.282
▁השנתי	-11.282
▁جيمس	-11.2821
▁לביטחון	-11.2822
▁عمال	-11.2822
▁نتذكر	-11.2823
▁נשמר	-11.2824
▁הקלה	-11.2825
פונים	-11.2825
▁היל	-11.2826
وين	-11.2827
ئيل	-11.2827
▁להתקדם	-11.2828
▁שפורסם	-11.2829
▁كهذه	-11.283
▁לוחות	-11.283
سلك	-11.2831
שמיע	-11.2831
▁الدراجات	-11.2831
נפש	-11.2832
▁משאבי	-11.2832
▁אפקט	-11.2834
▁المالك	-11.2834
▁الشقة	-11.2835
ולים	-11.2835
سكا	-11.2835
▁الكافي	-11.2835
▁مسلم	-11.2836
▁הממלכה	-11.2837
▁للصحة	-11.2837
חקיקה	-11.2837
NET	-11.2838
▁جلسة	-11.2838
▁ثوان	-11.2839
▁הפור	-11.2839
▁מוצע	-11.284
▁80%	-11.2841
مش	-11.2841
פלי	-11.2844
▁אוניברסיטה	-11.2844
فارق	-11.2846
▁מנכ	-11.2847
▁جرائم	-11.2847
רכז	-11.2848
▁مخصصة	-11.2848
▁בחיפוש	-11.2849
▁الضرورية	-11.2851
▁גרמני	-11.2853
▁الحوار	-11.2853
حث	-11.2853
▁הוצאות	-11.2854
▁الفعال	-11.2855
غلي	-11.2857
▁בחורף	-11.2857
وارد	-11.2857
▁روبل	-11.2858
over	-11.2858
▁הימין	-11.2859
▁العمود	-11.286
▁يفعلون	-11.2861
▁שיותר	-11.2864
▁ממלא	-11.2864
▁הגייה	-11.2866
▁קטגוריה	-11.2866
סובב	-11.2867
▁יקבלו	-11.2867
מינה	-11.2867
5)	-11.2868
▁لب	-11.2869
احترام	-11.2869
▁الوظيفة	-11.2871
▁الصلب	-11.2872
▁الضيوف	-11.2872
▁انتهت	-11.2872
راع	-11.2872
▁המטפל	-11.2873
ord	-11.2873
מדינת	-11.2875
▁מתבצע	-11.2876
מרה	-11.2877
ward	-11.2878
▁مغادرة	-11.2878
▁micro	-11.2878
cl	-11.2879
ons	-11.288
▁בעידן	-11.2881
▁עוצמת	-11.2882
▁حاليًا	-11.2882
▁مواقف	-11.2882
תמונות	-11.2883
▁إر	-11.2884
حظر	-11.2884
حوّل	-11.2884
ثبت	-11.2884
▁واليوم	-11.2885
تحر	-11.2886
▁המלצות	-11.2886
باد	-11.2889
▁المه	-11.2889
▁قديمة	-11.2889
▁أيها	-11.2889
▁Te	-11.2889
▁ودول	-11.2892
▁חסרי	-11.2892
▁דרוש	-11.2893
حفز	-11.2894
▁חנויות	-11.2895
▁يتجاوز	-11.2896
עריכת	-11.2897
▁העמים	-11.2897
▁قيل	-11.2897
بطبيعة	-11.2897
▁القياسية	-11.29
▁מסתכל	-11.2902
רמי	-11.2902
תרופות	-11.2903
▁הפיזי	-11.2903
▁فهناك	-11.2904
▁חשמלי	-11.2904
מכשיר	-11.2905
▁سلبي	-11.2905
▁לחם	-11.2906
▁ممكنة	-11.2907
▁מודרני	-11.2907
▁اجراء	-11.2907
יצר	-11.2907
▁التمارين	-11.2908
▁מאושרים	-11.2909
▁مقعد	-11.2909
يمان	-11.2909
▁שנבחר	-11.2909
▁يختار	-11.2909
▁גול	-11.2911
▁Ko	-11.2912
חשב	-11.2912
▁המצוי	-11.2916
בוט	-11.2916
▁التداول	-11.2917
▁ID	-11.2917
سابق	-11.2917
قنع	-11.2917
▁גוגל	-11.2918
▁הקורסים	-11.2918
old	-11.2919
أطفال	-11.292
سياسي	-11.292
▁ציבוריים	-11.2921
Source	-11.2924
▁عدا	-11.2924
ank	-11.2925
טכני	-11.2927
▁كونها	-11.2929
▁تصف	-11.293
▁العسل	-11.293
▁الالكتروني	-11.2931
▁מופעל	-11.2931
que	-11.2933
מאי	-11.2935
▁الفيزياء	-11.2936
▁מסורתי	-11.2937
▁التركية	-11.2938
▁עז	-11.2939
▁ملاءمة	-11.2939
▁3000	-11.2939
▁إسرائيلية	-11.2941
▁אדוני	-11.2941
▁مائة	-11.2941
▁אסירים	-11.2942
עיסוק	-11.2943
▁مصمم	-11.2943
לכו	-11.2944
Th	-11.2945
▁أخر	-11.2945
▁يصعب	-11.2947
▁שגר	-11.2948
▁للعالم	-11.295
משטרה	-11.2951
ضبط	-11.2952
▁للولايات	-11.2954
▁מתכת	-11.2954
▁דיאטה	-11.2955
תקפו	-11.2956
▁לשאלה	-11.2956
▁לנוע	-11.2956
▁מסרב	-11.2957
▁الأنسجة	-11.2958
▁וצ	-11.2959
▁المبكر	-11.2959
▁מרכיבים	-11.2959
▁הגדרת	-11.296
▁توصيل	-11.296
▁נוהג	-11.2962
▁משלו	-11.2963
عان	-11.2964
▁تمثيل	-11.2964
שן	-11.2964
▁מעגל	-11.2964
▁توقيع	-11.2966
כיה	-11.2966
▁طرد	-11.2967
▁الصفقة	-11.2969
تعلّم	-11.2969
▁היופי	-11.2971
▁اللاتينية	-11.2972
דירות	-11.2972
▁עיראק	-11.2972
▁الأحذية	-11.2974
▁מתקבל	-11.2974
▁الصعبة	-11.2974
▁החג	-11.2974
▁مثلا	-11.2975
▁מוגבלות	-11.2975
▁القناة	-11.2976
▁المشروبات	-11.2978
▁صاروخ	-11.2978
▁יסוד	-11.2978
▁הצמח	-11.298
▁אהב	-11.298
قوانين	-11.2982
▁الآلي	-11.2983
PC	-11.2983
▁مماثل	-11.2983
▁تويتر	-11.2985
▁بطرق	-11.2985
▁הפועל	-11.2985
▁فرنسي	-11.2987
▁רובל	-11.2987
▁الأنف	-11.2988
▁מבצעים	-11.2988
▁אבק	-11.299
▁يولد	-11.2991
▁יפני	-11.2991
تري	-11.2992
▁דגש	-11.2993
▁البيع	-11.2995
ورات	-11.2995
▁טיפש	-11.2996
قُ	-11.2996
ארבע	-11.2997
▁خفيفة	-11.2997
▁ننسى	-11.2998
▁سل	-11.2998
▁בארגון	-11.2999
ופים	-11.3
▁המסר	-11.3
▁لغات	-11.3001
era	-11.3001
▁משטרת	-11.3001
אנט	-11.3002
▁يقال	-11.3003
▁מתקרב	-11.3004
▁עירוני	-11.3004
▁חומצה	-11.3005
▁מחמד	-11.3005
NT	-11.3006
▁בפייסבוק	-11.3006
▁قائم	-11.3006
▁قاتل	-11.3007
▁השלמת	-11.3007
الق	-11.3008
▁לאומית	-11.3008
وَ	-11.3009
▁וחבר	-11.301
▁رغبت	-11.3012
▁الامريكي	-11.3013
▁وتحديد	-11.3013
qui	-11.3014
▁والثقافة	-11.3014
תפקיד	-11.3014
▁المواقف	-11.3017
▁יכולתי	-11.3017
מינו	-11.302
cal	-11.3021
▁הורי	-11.3021
▁נעליים	-11.3021
▁מובילים	-11.3023
▁הערכים	-11.3024
▁הנזק	-11.3024
▁السنوي	-11.3028
▁أغ	-11.3028
▁يثير	-11.303
▁מחצית	-11.3031
▁לסגור	-11.3032
يتو	-11.3032
▁وجبات	-11.3033
▁גורמי	-11.3033
▁מנקודת	-11.3033
▁تشبه	-11.3034
▁الرائع	-11.3034
▁دورا	-11.3035
▁-20	-11.3035
نون	-11.3035
▁المحادثات	-11.3036
صاص	-11.3036
▁الخامسة	-11.3036
▁והיה	-11.3036
אמריקה	-11.3038
▁المشاهد	-11.3039
قناع	-11.3039
כינוי	-11.3042
הישרדות	-11.3043
▁מרפא	-11.3043
Windows	-11.3044
▁القطط	-11.3045
لاس	-11.3045
▁لسنا	-11.3046
▁والفن	-11.3046
▁לצמצם	-11.3048
▁الاسترخاء	-11.3049
هرب	-11.3049
▁الزفاف	-11.3049
ريل	-11.305
▁ذكرت	-11.305
▁הגרסה	-11.3054
▁Exchange	-11.3055
4)	-11.3055
▁أسود	-11.3056
▁نس	-11.3057
▁חיו	-11.3057
▁גרי	-11.3058
تنازل	-11.3058
▁جسر	-11.3059
▁تتلقى	-11.3059
▁הסיכוי	-11.3059
▁ار	-11.3059
▁היקף	-11.306
ישות	-11.306
▁טוען	-11.3061
▁الحاسوب	-11.3061
▁צבאיים	-11.3061
עכשווי	-11.3061
▁الاستقرار	-11.3062
سَ	-11.3062
PD	-11.3062
▁הפוטנציאל	-11.3063
اهر	-11.3063
▁הביא	-11.3064
▁הסר	-11.3065
▁يرام	-11.3068
▁سعداء	-11.3068
▁بأس	-11.3069
▁عشرين	-11.3069
uk	-11.307
▁زمنية	-11.3071
▁לבנון	-11.3072
برت	-11.3072
▁الجهد	-11.3074
▁1945	-11.3075
▁מבקר	-11.3077
تصريح	-11.3077
▁وثائق	-11.3079
عجل	-11.3079
▁השקעות	-11.3081
▁الكوكب	-11.3085
▁لكنّ	-11.3086
מבצע	-11.3086
▁تعامل	-11.3087
▁المشهد	-11.3088
هناك	-11.3089
▁מיידית	-11.3089
▁الجوانب	-11.3091
قاض	-11.3092
▁ספרות	-11.3092
▁התחבורה	-11.3092
dia	-11.3092
▁الإيجابية	-11.3094
▁غاز	-11.3094
▁اللازم	-11.3095
▁הספק	-11.3096
تجه	-11.3097
▁ينطبق	-11.3097
▁الوشم	-11.3097
▁לשוק	-11.3099
▁يتناول	-11.3099
▁عهد	-11.3099
صفر	-11.31
יקר	-11.3104
▁חדרי	-11.3104
יסטי	-11.3105
▁للإنسان	-11.3105
▁أنَّ	-11.3106
يّات	-11.3106
נור	-11.3107
▁במשפחה	-11.3108
▁شباب	-11.3109
tt	-11.3111
▁سويسرا	-11.3113
▁محام	-11.3114
▁האיראני	-11.3114
▁المجاورة	-11.3114
▁المركبات	-11.3114
▁המאסטר	-11.3115
עצמו	-11.3116
▁המפ	-11.3117
▁יוון	-11.3117
▁קולות	-11.3117
يتس	-11.3118
▁السحر	-11.3118
חיילים	-11.312
▁וטיפול	-11.312
קשים	-11.312
גאווה	-11.3121
▁كوم	-11.3121
מצרים	-11.3121
▁ראייה	-11.3122
أفضل	-11.3122
▁تراجع	-11.3123
وسع	-11.3123
▁وعند	-11.3123
▁تصحيح	-11.3124
▁مرشح	-11.3125
▁أحيانًا	-11.3126
▁לסמוך	-11.3126
▁בקמפוס	-11.3127
▁للعامل	-11.3128
גוף	-11.3129
راح	-11.3131
▁לתוכנית	-11.3132
▁מרצ	-11.3132
▁حينما	-11.3132
▁الثلج	-11.3132
תחת	-11.3133
▁السبع	-11.3133
▁ההתנהגות	-11.3134
▁للشعب	-11.3135
نجاح	-11.3136
▁الطرفين	-11.3136
▁بروتوكول	-11.3137
سوب	-11.3137
▁לעודד	-11.3138
رمان	-11.3138
▁جهازك	-11.3138
▁النضال	-11.3138
סופ	-11.3139
▁تكشف	-11.3139
▁למחרת	-11.3139
▁وكثير	-11.3139
גיוס	-11.314
جلب	-11.3142
دوا	-11.3143
▁المرغوب	-11.3144
▁הרפואה	-11.3145
▁السكن	-11.3146
▁במגזר	-11.3147
▁تسأل	-11.3149
▁الخميس	-11.315
▁تنسيق	-11.315
▁מאסר	-11.3152
קיף	-11.3155
▁محركات	-11.3155
▁المساحة	-11.3155
משפט	-11.3156
▁أدت	-11.3157
▁שומע	-11.3157
▁لعرض	-11.3158
▁זמינות	-11.3159
▁והס	-11.316
ِن	-11.316
▁ماء	-11.3161
نفق	-11.3163
رقم	-11.3164
▁تضمين	-11.3164
▁تنس	-11.3164
▁מנות	-11.3164
▁الجرعة	-11.3165
▁إليهم	-11.3165
▁ויעיל	-11.3165
▁האוקיינוס	-11.3166
▁by	-11.3166
▁غي	-11.3166
▁أخلاقي	-11.3167
ينج	-11.3168
דלת	-11.3169
▁רגוע	-11.317
▁אופנה	-11.3171
▁أتمنى	-11.3171
▁הסרת	-11.3172
תאים	-11.3172
▁زوجها	-11.3173
▁موارد	-11.3174
▁فورا	-11.3175
▁לשכנע	-11.3175
▁1988	-11.3176
تنفس	-11.3177
▁רכוש	-11.3177
▁מעביר	-11.3177
▁الشرف	-11.3179
▁ההחלטות	-11.318
▁إكمال	-11.3181
▁جسدي	-11.3181
▁הקטנה	-11.3182
▁מעורבות	-11.3182
جت	-11.3182
خبار	-11.3183
▁الإسلامي	-11.3184
▁צליל	-11.3184
עב	-11.3184
vel	-11.3185
شوف	-11.3186
قبول	-11.3186
▁הציבורית	-11.3186
▁תומכים	-11.3187
su	-11.3187
▁رغبة	-11.3188
▁خادم	-11.3191
ناظر	-11.3191
▁البعيد	-11.3191
▁الإست	-11.3192
▁ישנים	-11.3192
▁קעקוע	-11.3193
▁العناية	-11.3193
▁تدور	-11.3194
vers	-11.3194
רטי	-11.3194
אוזן	-11.3195
تحديث	-11.3195
▁عربية	-11.3196
▁باحث	-11.3197
▁קרובים	-11.3198
of	-11.3198
▁حمض	-11.3199
▁וכמובן	-11.3199
▁זרימת	-11.3199
▁تخفيض	-11.3199
حَ	-11.3199
▁شأن	-11.3201
▁بأنهم	-11.3203
▁الفكر	-11.3204
▁اختبارات	-11.3204
▁כללים	-11.3206
▁حجز	-11.3206
מלחמת	-11.3208
▁90%	-11.3209
▁החינוכי	-11.3211
תקציב	-11.3211
تاجر	-11.3214
מעגל	-11.3215
▁לירות	-11.3215
▁ثورة	-11.3216
oot	-11.3216
▁הקיצוני	-11.3216
شة	-11.3216
ئي	-11.3216
▁الرجاء	-11.3217
▁מיקרו	-11.3217
▁Tag	-11.3217
▁الشمسية	-11.3217
▁דצמבר	-11.3218
▁בטי	-11.3219
▁الاتفاقية	-11.3219
▁تخفيف	-11.3221
מורה	-11.3221
▁الخبز	-11.3222
▁להסתיר	-11.3223
زق	-11.3224
▁التدخل	-11.3225
אזרחים	-11.3226
▁الحديدية	-11.3226
▁יקבל	-11.3227
▁يعادل	-11.3228
▁מודלים	-11.3229
▁الوجبات	-11.3229
▁co	-11.323
▁הסיני	-11.3231
▁איחוד	-11.3231
פיס	-11.3233
▁أعظم	-11.3233
▁מדגיש	-11.3233
▁עוצמה	-11.3235
שותפות	-11.3235
LI	-11.3235
▁האתגרים	-11.3235
▁דירות	-11.3236
▁معاً	-11.3236
▁منافس	-11.3237
▁הגבר	-11.3239
▁اكتب	-11.324
ציר	-11.3241
▁سياسات	-11.3241
▁המצלמה	-11.3242
اهة	-11.3242
▁להתקיים	-11.3243
▁למישהו	-11.3246
▁لمجموعة	-11.3246
▁ביעילות	-11.3247
▁פרקים	-11.3248
▁التاريخي	-11.3248
▁أسرة	-11.3249
عاب	-11.3249
ברג	-11.325
▁למדיניות	-11.3252
▁الطويلة	-11.3253
▁يفتح	-11.3253
▁الحساسية	-11.3253
▁الاختبارات	-11.3255
▁מגלה	-11.3255
▁زواج	-11.3257
▁لويس	-11.3257
וכח	-11.3257
▁منكم	-11.3259
▁تسير	-11.3259
نطلق	-11.3259
▁عليّ	-11.326
تجول	-11.326
▁الرمز	-11.326
משרד	-11.3261
صاحب	-11.3262
▁מצויד	-11.3264
▁كنيسة	-11.3266
2017	-11.3267
▁ترتبط	-11.3267
َيْ	-11.3267
סוג	-11.3268
▁كاف	-11.3268
▁الجسد	-11.3269
▁موطن	-11.3269
دخول	-11.3269
خوض	-11.3271
ريم	-11.3271
תמונה	-11.3272
عدل	-11.3274
قوى	-11.3276
ark	-11.328
▁ביפן	-11.328
▁التخصص	-11.3281
خلق	-11.3281
▁תצ	-11.3281
שוט	-11.3282
▁الزراعية	-11.3282
▁وآ	-11.3282
זווית	-11.3283
▁تجميع	-11.3284
נגן	-11.3284
תלמיד	-11.3284
ליים	-11.3285
שקיע	-11.3286
▁الاستراتيجي	-11.3287
▁בפרויקט	-11.3288
▁حص	-11.3289
▁النقدية	-11.3289
▁להגביל	-11.329
▁הקלאסי	-11.329
يلة	-11.3291
▁מחל	-11.3291
▁חלומות	-11.3291
▁פגישה	-11.3291
ale	-11.3291
מאן	-11.3292
خلي	-11.3293
▁סביבתי	-11.3294
▁المحليين	-11.3294
حاق	-11.3296
▁القوية	-11.3296
▁מינים	-11.3296
▁נהדרת	-11.3297
▁צריכות	-11.3297
▁ביכולת	-11.3297
דין	-11.3299
יתר	-11.3299
שתף	-11.33
كلف	-11.33
שער	-11.3301
▁בחרו	-11.3301
رِ	-11.3302
▁شائعة	-11.3302
عادل	-11.3304
مستوى	-11.3304
-90	-11.3305
▁البحثية	-11.3305
▁3)	-11.3307
عروض	-11.3307
▁קהילה	-11.3308
سلب	-11.3308
▁העובר	-11.3309
▁החוויה	-11.3309
▁בקהילה	-11.3309
פציע	-11.331
▁شهرين	-11.331
▁והע	-11.331
▁ההצעה	-11.331
تساوي	-11.3314
▁الفواكه	-11.3314
▁الفلبين	-11.3314
תוכניות	-11.3316
חוסר	-11.3316
פלה	-11.3316
▁سأل	-11.3317
▁צפויה	-11.3318
▁שלטון	-11.3318
▁בהתבסס	-11.3318
gen	-11.3319
▁דוקטור	-11.3319
▁מענה	-11.332
ברית	-11.3321
▁לאלה	-11.3323
▁Samsung	-11.3326
▁מורכבים	-11.3327
▁גלוי	-11.3327
גנות	-11.3327
طعم	-11.3329
▁עיתונאים	-11.3329
حف	-11.3329
▁מניח	-11.333
nes	-11.333
راقب	-11.333
▁דומות	-11.3332
يمة	-11.3336
WEB	-11.3338
▁مهنية	-11.3338
▁بولندا	-11.3339
▁Netflix	-11.3339
▁להתקשר	-11.334
▁להתעלם	-11.334
▁חוב	-11.334
▁جعلت	-11.334
lf	-11.3341
▁ידעו	-11.3342
▁הכריז	-11.3342
▁مهني	-11.3343
red	-11.3343
ייס	-11.3344
هدد	-11.3344
▁האימפריה	-11.3344
▁הבור	-11.3344
▁تغطية	-11.3344
▁سلم	-11.3344
▁اتحاد	-11.3345
▁إير	-11.3345
▁נפח	-11.3346
▁أسنان	-11.3347
▁לפעילות	-11.3349
▁שוויון	-11.3349
▁بش	-11.335
▁משלהם	-11.335
6.	-11.3352
▁להרים	-11.3352
▁בכלא	-11.3353
▁أور	-11.3353
כור	-11.3354
▁באפשרות	-11.3354
▁حقل	-11.3355
تحقيق	-11.3355
▁مهرجان	-11.3355
▁לעסוק	-11.3356
▁بنشاط	-11.3357
▁מסד	-11.3357
▁יציבות	-11.3357
▁ترا	-11.3359
▁הכבד	-11.3362
▁הנושאים	-11.3363
▁זמינה	-11.3364
▁במדעי	-11.3364
▁يقرر	-11.3364
▁שהייתה	-11.3365
▁מדד	-11.3365
ננת	-11.3366
▁שמדובר	-11.3368
▁للمشاركة	-11.3369
حتل	-11.337
סטודנטים	-11.3371
בלו	-11.3371
▁מחירים	-11.3372
▁مزود	-11.3373
واب	-11.3373
بقية	-11.3373
▁أقراص	-11.3373
▁تفاعل	-11.3374
▁הנח	-11.3375
▁מקלט	-11.3375
▁أعوام	-11.3375
خصص	-11.3376
כבש	-11.3377
▁الضارة	-11.3377
▁הגרוע	-11.3377
יצא	-11.3377
▁דיסק	-11.3377
كثر	-11.338
▁מוסלמים	-11.338
▁הועבר	-11.3382
▁شرط	-11.3383
▁عباس	-11.3384
RS	-11.3384
الح	-11.3385
▁الملاحظات	-11.3387
▁وضعها	-11.3387
▁החלב	-11.3387
▁تصنيع	-11.3388
▁السفن	-11.339
▁حاد	-11.3391
▁استشارة	-11.3391
▁האסטרטגי	-11.3391
▁تلقى	-11.3392
▁المجانية	-11.3392
▁المب	-11.3394
تمتع	-11.3394
▁Black	-11.3394
▁الثامن	-11.3394
▁לתקוף	-11.3395
▁West	-11.3396
▁مسؤولي	-11.3398
מידה	-11.3399
ديان	-11.3399
oli	-11.3399
אוכל	-11.34
▁عميل	-11.3401
▁הסכמה	-11.3401
▁אהבת	-11.3401
▁لعبت	-11.3401
▁המעי	-11.3402
▁ويندوز	-11.3402
▁القاضي	-11.3404
▁המספק	-11.3405
▁8.1	-11.3405
▁נפשי	-11.3406
▁الآونة	-11.3407
0.0	-11.3407
▁הקפד	-11.3407
פרסום	-11.3409
▁העיקריות	-11.341
▁المصادر	-11.341
▁שייך	-11.341
CP	-11.3411
أحد	-11.3412
▁לוס	-11.3412
▁התיירות	-11.3412
▁קטלני	-11.3413
▁بارك	-11.3413
-70	-11.3413
▁הדיווח	-11.3414
TS	-11.3415
وزع	-11.3416
▁يضم	-11.3417
▁مغلقة	-11.3418
▁התחלה	-11.3418
▁כאבי	-11.3418
▁באחריות	-11.3419
▁הגרעיני	-11.3419
▁גלובלי	-11.342
▁الشمالي	-11.3422
▁ניצול	-11.3422
▁أخت	-11.3424
▁המקורית	-11.3425
▁تلو	-11.3426
יוצא	-11.3428
▁ضم	-11.3428
▁המסמכים	-11.3429
▁מקווים	-11.3429
وبي	-11.3429
▁عُ	-11.3431
און	-11.3431
▁לבנים	-11.3434
جع	-11.3435
פחות	-11.3436
▁ולמ	-11.3437
▁رواية	-11.3438
▁المكتبة	-11.3439
▁التحرك	-11.3443
▁مار	-11.3444
מוצרים	-11.3447
تزايد	-11.3447
אתגר	-11.3447
▁התכנון	-11.3448
ثل	-11.3448
▁أدوية	-11.3452
▁يقدر	-11.3452
▁מפר	-11.3452
▁החלום	-11.3453
תואר	-11.3453
תבטא	-11.3454
▁דקה	-11.3454
▁130	-11.3455
بنية	-11.3455
▁מטופלים	-11.3455
▁نقد	-11.3456
▁פנ	-11.3456
▁כרטיסים	-11.3457
▁لقب	-11.3458
▁الاعلام	-11.3459
פחד	-11.346
▁أحدهم	-11.3461
▁56	-11.3461
▁עצי	-11.3461
▁וכאשר	-11.3463
▁ואחד	-11.3463
▁الحمض	-11.3464
▁למטרה	-11.3464
▁מוזיקה	-11.3466
▁Love	-11.3466
▁מלווה	-11.3467
קנו	-11.3471
▁حدثت	-11.3471
▁الانتحار	-11.3474
▁تسعة	-11.3474
בירה	-11.3474
▁تقبل	-11.3476
▁שהחל	-11.3477
▁בדומה	-11.3478
▁كرسي	-11.3478
▁الارض	-11.348
כוס	-11.348
▁שכח	-11.348
▁أسلحة	-11.3482
▁توقعات	-11.3483
▁האמונה	-11.3485
▁تاريخها	-11.3486
▁Du	-11.3486
▁تخضع	-11.3488
غزو	-11.3491
غال	-11.3493
▁מנוחה	-11.3494
فح	-11.3495
▁لإعداد	-11.3495
קף	-11.3497
▁بوجود	-11.3497
▁הנוער	-11.3498
אנוש	-11.3498
▁מקומית	-11.3499
▁תהליכים	-11.35
قانون	-11.3501
–19	-11.3503
חקירות	-11.3504
تعامل	-11.3505
▁נכנסים	-11.3506
▁بنيت	-11.3506
أول	-11.3507
כנ	-11.3507
▁בטבע	-11.3508
فص	-11.3512
▁עכברים	-11.3514
▁والأمن	-11.3515
▁البولي	-11.3515
▁ושני	-11.3516
▁Tra	-11.3518
▁للرجال	-11.3518
ازي	-11.3518
بالنسبة	-11.3519
جس	-11.352
ّف	-11.352
تلقي	-11.3522
قرة	-11.3522
▁בונוס	-11.3523
▁מאובטח	-11.3525
▁الأهم	-11.3525
سوس	-11.3526
▁קדוש	-11.3526
מדע	-11.3529
تعلق	-11.3529
تدخل	-11.3529
▁المثير	-11.353
▁קבועה	-11.353
▁اللواتي	-11.353
▁غدا	-11.3532
توتر	-11.3532
▁המכירות	-11.3534
ولف	-11.3536
▁לנהוג	-11.3537
▁يبحثون	-11.3538
▁تحتاجه	-11.3538
▁السلسلة	-11.3538
שמירה	-11.3542
גלי	-11.3543
جيد	-11.3544
▁اشتراك	-11.3547
▁الزمني	-11.3548
▁בקשת	-11.3548
▁היחס	-11.3548
أل	-11.3549
▁يغير	-11.355
▁לשי	-11.3551
▁מהווים	-11.3552
صلح	-11.3555
ذبح	-11.3555
▁والص	-11.3555
▁ذا	-11.3555
▁التهديد	-11.3556
כגון	-11.3558
ונד	-11.356
סני	-11.356
▁اعتمادا	-11.356
טיות	-11.356
▁פרוטוקול	-11.356
▁להיעשות	-11.3561
▁בכתובת	-11.3562
▁לכסות	-11.3562
▁הגדלת	-11.3563
خطر	-11.3564
▁לאף	-11.3564
▁الفني	-11.3567
عزيز	-11.3567
▁חוזה	-11.3568
▁להסת	-11.3568
▁للأم	-11.3569
פלסטין	-11.357
[...]
